{
  "version": "1.0",
  "truncation": null,
  "padding": null,
  "added_tokens": [
    {
      "id": 0,
      "special": true,
      "content": "<|endoftext|>",
      "single_word": false,
      "lstrip": false,
      "rstrip": false,
      "normalized": false
    },
    {
      "id": 1,
      "special": true,
      "content": "<|padding|>",
      "single_word": false,
      "lstrip": false,
      "rstrip": false,
      "normalized": false
    }
  ],
  "normalizer": {
    "type": "NFKC"
  },
  "pre_tokenizer": {
    "type": "ByteLevel",
    "add_prefix_space": true,
    "trim_offsets": true
  },
  "post_processor": {
    "type": "ByteLevel",
    "add_prefix_space": true,
    "trim_offsets": true
  },
  "decoder": {
    "type": "ByteLevel",
    "add_prefix_space": true,
    "trim_offsets": true
  },
  "model": {
    "dropout": null,
    "unk_token": null,
    "continuing_subword_prefix": null,
    "end_of_word_suffix": null,
    "fuse_unk": false,
    "vocab": {
      "<|endoftext|>": 0,
      "<|padding|>": 1,
      "!": 2,
      "\"": 3,
      "#": 4,
      "$": 5,
      "%": 6,
      "&": 7,
      "'": 8,
      "(": 9,
      ")": 10,
      "*": 11,
      "+": 12,
      ",": 13,
      "-": 14,
      ".": 15,
      "/": 16,
      "0": 17,
      "1": 18,
      "2": 19,
      "3": 20,
      "4": 21,
      "5": 22,
      "6": 23,
      "7": 24,
      "8": 25,
      "9": 26,
      ":": 27,
      ";": 28,
      "<": 29,
      "=": 30,
      ">": 31,
      "?": 32,
      "@": 33,
      "A": 34,
      "B": 35,
      "C": 36,
      "D": 37,
      "E": 38,
      "F": 39,
      "G": 40,
      "H": 41,
      "I": 42,
      "J": 43,
      "K": 44,
      "L": 45,
      "M": 46,
      "N": 47,
      "O": 48,
      "P": 49,
      "Q": 50,
      "R": 51,
      "S": 52,
      "T": 53,
      "U": 54,
      "V": 55,
      "W": 56,
      "X": 57,
      "Y": 58,
      "Z": 59,
      "[": 60,
      "\\": 61,
      "]": 62,
      "^": 63,
      "_": 64,
      "`": 65,
      "a": 66,
      "b": 67,
      "c": 68,
      "d": 69,
      "e": 70,
      "f": 71,
      "g": 72,
      "h": 73,
      "i": 74,
      "j": 75,
      "k": 76,
      "l": 77,
      "m": 78,
      "n": 79,
      "o": 80,
      "p": 81,
      "q": 82,
      "r": 83,
      "s": 84,
      "t": 85,
      "u": 86,
      "v": 87,
      "w": 88,
      "x": 89,
      "y": 90,
      "z": 91,
      "{": 92,
      "|": 93,
      "}": 94,
      "~": 95,
      "¡": 96,
      "¢": 97,
      "£": 98,
      "¤": 99,
      "¥": 100,
      "¦": 101,
      "§": 102,
      "¨": 103,
      "©": 104,
      "ª": 105,
      "«": 106,
      "¬": 107,
      "®": 108,
      "¯": 109,
      "°": 110,
      "±": 111,
      "²": 112,
      "³": 113,
      "´": 114,
      "µ": 115,
      "¶": 116,
      "·": 117,
      "¸": 118,
      "¹": 119,
      "º": 120,
      "»": 121,
      "¼": 122,
      "½": 123,
      "¾": 124,
      "¿": 125,
      "Â": 126,
      "Ã": 127,
      "Ä": 128,
      "Å": 129,
      "Æ": 130,
      "Ç": 131,
      "È": 132,
      "É": 133,
      "Ê": 134,
      "Ë": 135,
      "Ì": 136,
      "Í": 137,
      "Î": 138,
      "Ï": 139,
      "Ð": 140,
      "Ñ": 141,
      "Ò": 142,
      "Ó": 143,
      "Ô": 144,
      "Õ": 145,
      "Ö": 146,
      "×": 147,
      "Ø": 148,
      "Ù": 149,
      "Ú": 150,
      "Û": 151,
      "Ü": 152,
      "Þ": 153,
      "à": 154,
      "á": 155,
      "â": 156,
      "ã": 157,
      "ä": 158,
      "å": 159,
      "æ": 160,
      "ç": 161,
      "è": 162,
      "é": 163,
      "ê": 164,
      "ë": 165,
      "ì": 166,
      "í": 167,
      "î": 168,
      "ï": 169,
      "ð": 170,
      "ĉ": 171,
      "Ċ": 172,
      "ĝ": 173,
      "Ğ": 174,
      "Ġ": 175,
      "ġ": 176,
      "Ģ": 177,
      "ģ": 178,
      "Ĥ": 179,
      "ĥ": 180,
      "Ħ": 181,
      "ħ": 182,
      "Ĩ": 183,
      "ĩ": 184,
      "Ī": 185,
      "ī": 186,
      "Ĭ": 187,
      "ĭ": 188,
      "Į": 189,
      "į": 190,
      "İ": 191,
      "ı": 192,
      "Ĳ": 193,
      "ĳ": 194,
      "Ĵ": 195,
      "ĵ": 196,
      "Ķ": 197,
      "ķ": 198,
      "ĸ": 199,
      "Ĺ": 200,
      "ĺ": 201,
      "Ļ": 202,
      "ļ": 203,
      "Ľ": 204,
      "ľ": 205,
      "Ŀ": 206,
      "ŀ": 207,
      "Ł": 208,
      "ł": 209,
      "Ń": 210,
      "á»": 211,
      "áº": 212,
      "ng": 213,
      "Ġt": 214,
      "Ġc": 215,
      "ĠÄ": 216,
      "ĠÄĳ": 217,
      "nh": 218,
      "Ãł": 219,
      "Æ°": 220,
      "Ġv": 221,
      "Ã¡": 222,
      "Ġth": 223,
      "Ġl": 224,
      "Ġh": 225,
      "iá»": 226,
      "Ġch": 227,
      "Ġk": 228,
      "Ġb": 229,
      "Ġtr": 230,
      "Æ°á»": 231,
      "Ã´": 232,
      "Ġm": 233,
      "Ġs": 234,
      "áº¿": 235,
      "Ġnh": 236,
      "Ġn": 237,
      "áº¡": 238,
      "áº£": 239,
      "Ġkh": 240,
      "ĠÄĳá»": 241,
      "Ġg": 242,
      "Ã³": 243,
      "Ãª": 244,
      "Ġng": 245,
      "ĠT": 246,
      "Ġd": 247,
      "ph": 248,
      "Ġph": 249,
      "iá»ĩ": 250,
      "áº¥": 251,
      "á»Ļ": 252,
      "Ã´ng": 253,
      "Ã¢": 254,
      "á»ĳ": 255,
      "á»§": 256,
      "Ãªn": 257,
      "Ã¡c": 258,
      "Ġvá»": 259,
      "ĠvÃł": 260,
      "qu": 261,
      "Ġqu": 262,
      "Ã¬": 263,
      "áºŃ": 264,
      "Æ¡": 265,
      "ĠN": 266,
      "Ġtá»": 267,
      "ĠC": 268,
      "áº§": 269,
      "Æ°á»Ŀ": 270,
      "Ġgi": 271,
      "iáº¿": 272,
      "ĠlÃł": 273,
      "Ġx": 274,
      "Ġcá»§": 275,
      "Ġcá»§a": 276,
      "Ľi": 277,
      "Ġr": 278,
      "Ġthá»": 279,
      "ÃŃ": 280,
      "Ã£": 281,
      "Æ°á»£": 282,
      "uy": 283,
      "Äĥ": 284,
      "áº¡i": 285,
      "an": 286,
      "ĠcÃ³": 287,
      "ong": 288,
      "áº¥t": 289,
      "ĠH": 290,
      "ĠcÃ¡c": 291,
      "Ã¢n": 292,
      "Ġhá»": 293,
      "á»ĭ": 294,
      "Ãº": 295,
      "iá»ģ": 296,
      "á»±": 297,
      "Ã¬nh": 298,
      "ĠB": 299,
      "á»©": 300,
      "Ãły": 301,
      "ĠÄĲ": 302,
      "Æ°á»£c": 303,
      "ĠV": 304,
      "áº¯": 305,
      "á»Ļt": 306,
      "ĠTh": 307,
      "á»¯": 308,
      "ĠÄĳÆ°á»£c": 309,
      "á»Ł": 310,
      "iá»ĩn": 311,
      "Æ°á»Ľ": 312,
      "Ġcho": 313,
      "Æ°á»Ŀi": 314,
      "iÃªn": 315,
      "ĠkhÃ´ng": 316,
      "ĠÄĳÃ£": 317,
      "Ġtrong": 318,
      "anh": 319,
      "Ã²": 320,
      "Ġvá»Ľi": 321,
      "á»¥": 322,
      "Ġmá»Ļt": 323,
      "iá»ģu": 324,
      "ch": 325,
      "ĠM": 326,
      "Ġngh": 327,
      "Ãłnh": 328,
      "Ġ1": 329,
      "iá»ĥ": 330,
      "áº£i": 331,
      "ĠngÆ°á»Ŀi": 332,
      "inh": 333,
      "ay": 334,
      "Ã´i": 335,
      "Ġ2": 336,
      "Ã¹": 337,
      "Æ°á»Ŀng": 338,
      "Æ°Æ¡": 339,
      "áº§n": 340,
      "ao": 341,
      "ai": 342,
      "Æ°á»Ľc": 343,
      "ĠTr": 344,
      "áº·": 345,
      "Æ°Æ¡ng": 346,
      "ĠL": 347,
      "áº§u": 348,
      "ang": 349,
      "uyá»": 350,
      "ĠÄĳá»Ļ": 351,
      "ĠS": 352,
      "áº£n": 353,
      "am": 354,
      "á»¯ng": 355,
      "áºŃn": 356,
      "Ã¢y": 357,
      "á»ķ": 358,
      "ĠNg": 359,
      "Ãłn": 360,
      "áº¿n": 361,
      "á»ĵ": 362,
      "ĠP": 363,
      "áº¿t": 364,
      "ĠnhÆ°": 365,
      "ĠnÄĥ": 366,
      "ĠCh": 367,
      "Å©": 368,
      "uá»ĳ": 369,
      "Ġlá»": 370,
      "Ġnhá»¯ng": 371,
      "ung": 372,
      "on": 373,
      "ĠÄĳá»ĭ": 374,
      "Ãłng": 375,
      "ĠK": 376,
      "Ãłi": 377,
      "Ã¡n": 378,
      "ĠnÃły": 379,
      "ĠcÃ´ng": 380,
      "Ġ.": 381,
      "á»į": 382,
      "ÃŃnh": 383,
      "á»©c": 384,
      "á»Ļi": 385,
      "ĠÄĳá»ĥ": 386,
      "ĠÄĳÃ³": 387,
      "Ġho": 388,
      "Ã¡t": 389,
      "iáº¿n": 390,
      "áº½": 391,
      "Ġvá»ģ": 392,
      "Ŀi": 393,
      "Ġtá»«": 394,
      "Ġra": 395,
      "Ġ(": 396,
      "áºŃt": 397,
      "Ã½": 398,
      "Ġgiá»": 399,
      "in": 400,
      "iáº¿t": 401,
      "Ġkhi": 402,
      "eo": 403,
      "Ġsá»ĳ": 404,
      "Ã¡o": 405,
      "ĠA": 406,
      "Æ¡n": 407,
      "au": 408,
      "Ġtáº¡i": 409,
      "ĠÄĳáº¿n": 410,
      "iá»ĩt": 411,
      "á»Ń": 412,
      "Ġquy": 413,
      "áº¡n": 414,
      "Ġhá»į": 415,
      "Ã¹ng": 416,
      "Ġthu": 417,
      "00": 418,
      "áº±": 419,
      "ĠnÄĥm": 420,
      "á»ī": 421,
      "Ġthá»ĥ": 422,
      "Å©ng": 423,
      "áº¥y": 424,
      "iá»ĩc": 425,
      "ĠvÃło": 426,
      "ĠQ": 427,
      "ĠÄĳá»ĵ": 428,
      "ĠNh": 429,
      "Ġsáº½": 430,
      "ĠD": 431,
      "áºŃp": 432,
      "ĠG": 433,
      "Ġá»Ł": 434,
      "Ã¡i": 435,
      "ĠÄĳá»ĭnh": 436,
      "ĠPh": 437,
      "Ã©": 438,
      "áº©": 439,
      "ĠlÃłm": 440,
      "Ġcáº£": 441,
      "Ġbá»ĭ": 442,
      "Ã¡ng": 443,
      "ĠtrÃªn": 444,
      "Ġviá»ĩc": 445,
      "ĠtÃ´i": 446,
      "Ġhiá»ĩn": 447,
      "±c": 448,
      "ĠÄĳáº§u": 449,
      "Ġmá»": 450,
      "ĠcÅ©ng": 451,
      "ĠÄĳá»ĵng": 452,
      "Ġpháº£i": 453,
      "Ãºng": 454,
      "ĠnÆ°á»Ľc": 455,
      "ĠÄĳá»Ļng": 456,
      "Ġquan": 457,
      "Ġsá»±": 458,
      "áº«": 459,
      "ĠnhÃł": 460,
      "Ġláº¡i": 461,
      "Ãªu": 462,
      "ĠngÃły": 463,
      "Äĥn": 464,
      "Ġnhiá»ģu": 465,
      "á»Ļc": 466,
      "iá»ĩu": 467,
      "Ġdo": 468,
      "iá»ĥm": 469,
      "ĠnÃ³": 470,
      "Ä©": 471,
      "áº±ng": 472,
      "Äĥng": 473,
      "áº¡t": 474,
      "Ġchá»ī": 475,
      "Ã¡ch": 476,
      "Æ°á»£ng": 477,
      "ĠthÃłnh": 478,
      "Æ°a": 479,
      "áº£o": 480,
      "áº¥p": 481,
      "á»¥c": 482,
      "á»±c": 483,
      "Ãło": 484,
      "ĠÃ´ng": 485,
      "ģn": 486,
      "ĠnhÃ¢n": 487,
      "Ġ-": 488,
      "ĠhÃłng": 489,
      "01": 490,
      "Ġdá»±": 491,
      "Ã²n": 492,
      "áº¥n": 493,
      "áº¡o": 494,
      "Ã²ng": 495,
      "Ġ3": 496,
      "Ã¡p": 497,
      "ĠchÃŃnh": 498,
      "ĠcÆ¡": 499,
      "ħn": 500,
      "er": 501,
      "ĠÄĳá»ĳ": 502,
      "Ġgia": 503,
      "á»ĳi": 504,
      "ĠNam": 505,
      "ĠgiÃ¡": 506,
      "áº«n": 507,
      "áº£ng": 508,
      "uyÃªn": 509,
      "ĠmÃł": 510,
      "£p": 511,
      "á»ĩ": 512,
      "Æ°á»Ł": 513,
      "Ġtiáº¿": 514,
      "Ã¢m": 515,
      "iá»ĥn": 516,
      "ĠtrÆ°á»Ŀng": 517,
      "uyá»ĩ": 518,
      "Æ°á»Łng": 519,
      "Ġtheo": 520,
      "Ġthá»±c": 521,
      "Ã¢u": 522,
      "Ġkho": 523,
      "ĠÄĳi": 524,
      "oÃłn": 525,
      "Ã¡nh": 526,
      "Ġbiáº¿t": 527,
      "em": 528,
      "ĠhÃłnh": 529,
      "áº¯c": 530,
      "Ġhá»£p": 531,
      "ÃŃch": 532,
      "ĠViá»ĩt": 533,
      "iá»ĩp": 534,
      "ĠKh": 535,
      "áº·c": 536,
      "Ġvá»¥": 537,
      "á»ı": 538,
      "ĠÄĳiá»ģu": 539,
      "Ġcon": 540,
      "áº»": 541,
      "ĠÄĳang": 542,
      "Ãºc": 543,
      "ĠdÃ¢n": 544,
      "Ġhá»įc": 545,
      "ĠÄĳá»ģ": 546,
      "ĠhÆ¡n": 547,
      "ĠthÃ´ng": 548,
      "áº¯t": 549,
      "Ġthá»Ŀi": 550,
      "ĥn": 551,
      "uáº¥t": 552,
      "á»ĳng": 553,
      "ĠthÃ¬": 554,
      "Ã´n": 555,
      "en": 556,
      "Ġanh": 557,
      "Ġnháº¥t": 558,
      "ĠcÃ²n": 559,
      "áº·t": 560,
      "Ġsau": 561,
      "iá»ģn": 562,
      "ia": 563,
      "á»¹": 564,
      "Ġchá»©c": 565,
      "ar": 566,
      "ĠphÃ¡t": 567,
      "ĠlÃ½": 568,
      "uá»ĳc": 569,
      "Ġtá»ķ": 570,
      "á»¥ng": 571,
      "Ġy": 572,
      "á»ĳc": 573,
      "ĠnhÆ°ng": 574,
      "Ġthá»©": 575,
      "..": 576,
      "uyá»ĩn": 577,
      "Ġtháº¿": 578,
      "á»ķi": 579,
      "ĠnháºŃn": 580,
      "Ġsáº£n": 581,
      "Ġta": 582,
      "ĠÄĳá»ĳi": 583,
      "ĠviÃªn": 584,
      "Ġdá»¥ng": 585,
      "áº¹": 586,
      "Ġqua": 587,
      "Ġmá»Ľi": 588,
      "uá»Ļc": 589,
      "Ġlu": 590,
      "áº¥u": 591,
      "Ãªm": 592,
      "ĠtrÃ¬nh": 593,
      "Ġsinh": 594,
      "Ġtáº¿": 595,
      "Ġhá»Ļi": 596,
      "Æ¡i": 597,
      "iá»ĩm": 598,
      "á»©ng": 599,
      "Ġnghiá»ĩp": 600,
      "áº¡nh": 601,
      "á»ĭch": 602,
      "á»£": 603,
      "ĠnÃ³i": 604,
      "ĠmÃ¬nh": 605,
      "ĠcÃ¹ng": 606,
      "Ġtin": 607,
      "áº¡m": 608,
      "oáº¡i": 609,
      "ĠhÃ¬nh": 610,
      "ĠÃ": 611,
      "ĠtÆ°": 612,
      "Ġxuáº¥t": 613,
      "ĠchÃºng": 614,
      "áº¿u": 615,
      "ĠtrÆ°á»Ľc": 616,
      "Ġbá»Ļ": 617,
      "Ġráº¥t": 618,
      "Ġká»": 619,
      "Ġcao": 620,
      "Ġ201": 621,
      "al": 622,
      "ĠÄĳÃ¢y": 623,
      "Ġcáº¥p": 624,
      "ĠlÃªn": 625,
      "Ġxe": 626,
      "á»ĵng": 627,
      "á»ĵi": 628,
      "á»«": 629,
      "Ġtiáº¿p": 630,
      "iá»ĥu": 631,
      "iÃªu": 632,
      "ĠlÆ°á»£ng": 633,
      "ĠU": 634,
      "ĠQuá»ĳc": 635,
      "áº¡ng": 636,
      "áº£m": 637,
      "ĠR": 638,
      "Ġ4": 639,
      "Ġtu": 640,
      "Ã¡y": 641,
      "ĠnÃªn": 642,
      "Ġ\"": 643,
      "ĠkhÃ¡c": 644,
      "ĠÃ¡n": 645,
      "Ġlá»Ľ": 646,
      "ĠÄĳiá»ĥm": 647,
      "Ġ5": 648,
      "ĠbÃ¡o": 649,
      "Ġkáº¿t": 650,
      "á»ģn": 651,
      "ĠQu": 652,
      "ĠvÃ¬": 653,
      "im": 654,
      "ĠÄĳÆ°á»Ŀng": 655,
      "Ġkinh": 656,
      "ĠtÃ¡c": 657,
      "Ġbáº¡n": 658,
      "áº©m": 659,
      "ĠGi": 660,
      "Ġbáº£o": 661,
      "Ã³a": 662,
      "oÃłi": 663,
      "ĠthÃ¡ng": 664,
      "Ġtá»Ľi": 665,
      "Ġsá»Ń": 666,
      "ĠBá»Ļ": 667,
      "Ġtá»ī": 668,
      "ĠtÄĥng": 669,
      "ĠcÃ¡ch": 670,
      "Ġcáº§u": 671,
      "ĠTrung": 672,
      "iá»ħn": 673,
      "áº£nh": 674,
      "Ġchá»§": 675,
      "Ġgiáº£i": 676,
      "Ġdoanh": 677,
      "Ġcá»©": 678,
      "ĠCÃ´ng": 679,
      "Ġgiá»¯": 680,
      "Ġcuá»Ļc": 681,
      "Æ°á»Ľng": 682,
      "Ġráº±ng": 683,
      "ĠtÃ¬nh": 684,
      "Ġváº«n": 685,
      "Ġlá»±c": 686,
      "Ġhai": 687,
      "ĠnÄĥng": 688,
      "Ġan": 689,
      "Ġtháº¥y": 690,
      "Ġthá»§": 691,
      "Ġnay": 692,
      "ĠcÃ´": 693,
      "Ġtiá»ģn": 694,
      "Ġthá»ĭ": 695,
      "Ġtriá»ĥn": 696,
      "áº¯n": 697,
      "áº¡ch": 698,
      "Ã³ng": 699,
      "áºŃy": 700,
      "Ġná»¯": 701,
      "ĠtoÃłn": 702,
      "ĠX": 703,
      "Ġkhu": 704,
      "Ġtá»ĳ": 705,
      "es": 706,
      "á»įi": 707,
      "ĠI": 708,
      "ĠtÃłi": 709,
      "ĠphÃ¡p": 710,
      "ĠnÃło": 711,
      "Ġtá»±": 712,
      "uyá»ĥn": 713,
      "ĠxÃ£": 714,
      "Ġbáº£n": 715,
      "ĠHÃł": 716,
      "ÄĲ": 717,
      "Ġgiá»Ľi": 718,
      "Ġquá»ĳc": 719,
      "áº¯ng": 720,
      "Ġlá»Ľn": 721,
      "áºŃu": 722,
      "ĠgÃ¬": 723,
      "Ġquyáº¿t": 724,
      "or": 725,
      "Ġthá»ĳng": 726,
      "ua": 727,
      "Ġgiao": 728,
      "ĠAnh": 729,
      "Ġtá»īnh": 730,
      "Ġcáº§n": 731,
      "Ġvá»ĭ": 732,
      "Ãºt": 733,
      "Ġbáº±ng": 734,
      "Ġtá»¥": 735,
      "ĠMá»¹": 736,
      "Ġmáº·t": 737,
      "ĠphÃŃ": 738,
      "ĠtÃ¢m": 739,
      "ĠÄĳá»ķ": 740,
      "Ġtra": 741,
      "Ġem": 742,
      "Ġpháº§n": 743,
      "Ġtáº¡o": 744,
      "á»Ĺ": 745,
      "Ġthi": 746,
      "el": 747,
      "ĠchÆ°a": 748,
      "ĠphÆ°Æ¡ng": 749,
      "ĠTheo": 750,
      "ĠÄĳá»ĭa": 751,
      "ĠTrong": 752,
      "ĠphÃ²ng": 753,
      "á»įng": 754,
      "Ġgian": 755,
      "Äĥm": 756,
      "ĠnhiÃªn": 757,
      "ĠliÃªn": 758,
      "Ġquáº£": 759,
      "uyá»ħn": 760,
      "Ġ6": 761,
      "á»ĩnh": 762,
      "uá»ĳn": 763,
      "«a": 764,
      "áº³": 765,
      "á»Ŀ": 766,
      "áº¡c": 767,
      "Ġhoáº¡t": 768,
      "ĠmÃ¡y": 769,
      "ĠNguyá»ħn": 770,
      "ĠTÃ´i": 771,
      "uyá»ģn": 772,
      "Ġvi": 773,
      "Ġláº§n": 774,
      "Ġquyá»ģn": 775,
      "Ã¨": 776,
      "Æ°ng": 777,
      "iáº¿u": 778,
      "ĠÄĳáº¡i": 779,
      "Ġáº£nh": 780,
      "Ġdiá»ħn": 781,
      "ĠhÃ³a": 782,
      "Ġhá»ĵ": 783,
      "ĠtiÃªu": 784,
      "ĠyÃªu": 785,
      "Ġhá»ĩ": 786,
      "á»Ļng": 787,
      "Ġdá»±ng": 788,
      "Ã¡m": 789,
      "ĠtÃŃnh": 790,
      "Ġtá»¥c": 791,
      "ĠthÆ°Æ¡ng": 792,
      "ĠtrÆ°á»Łng": 793,
      "Ãµ": 794,
      "Ġvá»±c": 795,
      "á»Łi": 796,
      "ĠbÃ¡n": 797,
      "ĠthÆ°á»Ŀng": 798,
      "Ġhay": 799,
      "ĠÄĳÆ°a": 800,
      "ĠÄĳáº¡o": 801,
      "Ġchá»ĭ": 802,
      "ĠÄĳáº¥t": 803,
      "ĠtáºŃp": 804,
      "000": 805,
      "Ġgiá»Ŀ": 806,
      "Ġtrá»Ł": 807,
      "ĠÄĳiá»ĩn": 808,
      "Ġtrá»įng": 809,
      "Ġty": 810,
      "ĠquÃ¡": 811,
      "Ġthá»©c": 812,
      "Ġsá»Ł": 813,
      "ĠnghÄ©": 814,
      "Ġhiá»ĩu": 815,
      "áº©n": 816,
      "Ġchiáº¿n": 817,
      "áº³ng": 818,
      "áº§m": 819,
      "ĠE": 820,
      "Ġkhai": 821,
      "ĠHo": 822,
      "Ġtrá»ĭ": 823,
      "ĠTP": 824,
      "Ġnhiá»ĩm": 825,
      "Ġcháº¥t": 826,
      "Ġsá»ĳng": 827,
      "ĠÄĳá»Ļi": 828,
      "Ġbá»ĳ": 829,
      "ĠTá»ķ": 830,
      "Æ°u": 831,
      "á»ĵn": 832,
      "Ġbáº¯t": 833,
      "Ã²a": 834,
      "ĠÃ½": 835,
      "Ġhoáº·c": 836,
      "Ġtham": 837,
      "Ġtriá»ĩu": 838,
      "et": 839,
      "ĠkhÃ¡ch": 840,
      "ĠNá»Ļi": 841,
      "ĠsÃ¡t": 842,
      "ĠÄĳá»ķi": 843,
      "Ã¬m": 844,
      "Ġrá»ĵi": 845,
      "Ġbá»ĩnh": 846,
      "Ġchiáº¿": 847,
      "á»įn": 848,
      "ĠxÃ¢y": 849,
      "ĠF": 850,
      "Ġso": 851,
      "ĠváºŃy": 852,
      "Ġtuá»ķi": 853,
      "ĠngoÃłi": 854,
      "Ġpháº©m": 855,
      "Ġmuá»ĳn": 856,
      "Ġdá»ĭch": 857,
      "Ġ19": 858,
      "ĠkhÃ³": 859,
      "Ã©p": 860,
      "ĠlÃ£": 861,
      "ĠÄĳÆ¡n": 862,
      "Ġ7": 863,
      "á»Ľ": 864,
      "Ġ10": 865,
      "Ġkiá»ĥm": 866,
      "ĠbÃł": 867,
      "Ġcháº¿": 868,
      "Ã©t": 869,
      "Ġbáº¥t": 870,
      "áº£y": 871,
      "Ġtrung": 872,
      "Ġgáº§n": 873,
      "uá»ĳng": 874,
      "ĠláºŃp": 875,
      "Ãºp": 876,
      "Ġchuyá»ĥn": 877,
      "Ġcá»Ń": 878,
      "Ġmáº¡nh": 879,
      "ĠÄĥn": 880,
      "Ġtá»·": 881,
      "Ġpháº¡m": 882,
      "á»ĳn": 883,
      "ĠquÃ¢n": 884,
      "ĠsÄ©": 885,
      "ĠÄĳÃ¡nh": 886,
      "ĠcÃ¡o": 887,
      "ĠsÃ¡ch": 888,
      "Ġphá»ĳ": 889,
      "Ãłu": 890,
      "Ġvá»«a": 891,
      "Ġcá»©u": 892,
      "Ġthiáº¿t": 893,
      "ĠvÄĥn": 894,
      "Ġquáº£n": 895,
      "ĠJ": 896,
      "Ġváº¥n": 897,
      "áº±m": 898,
      "Ġgiáº£m": 899,
      "ĠVÄĥn": 900,
      "Ġloáº¡i": 901,
      "ĠtÃ¬m": 902,
      "ĠcÃ¡i": 903,
      "á»«ng": 904,
      "ĠÄĳÃ¬nh": 905,
      "Ġkhoáº£ng": 906,
      "Ġtá»ĳt": 907,
      "Ġ,": 908,
      "Ġtay": 909,
      "Ġbiá»ĩt": 910,
      "ĠtÃŃch": 911,
      "ĠÄĳo": 912,
      "Ġban": 913,
      "201": 914,
      "Ġtráº»": 915,
      "Ġcáº£m": 916,
      "uá»ĵn": 917,
      "Ġsao": 918,
      "Ġmá»©c": 919,
      "ĠtÆ°á»£ng": 920,
      "Ġ8": 921,
      "Ġkiáº¿n": 922,
      "ĠÄĳá»ģu": 923,
      "uyáº¿n": 924,
      "ĠÄĳáº¥u": 925,
      "ĠÃĶ": 926,
      "áº·p": 927,
      "ĠtÃªn": 928,
      "ĠluáºŃt": 929,
      "ĠhoÃłn": 930,
      "at": 931,
      "Æ°á»Ľi": 932,
      "ĠbÃªn": 933,
      "hi": 934,
      "Ġkhiáº¿n": 935,
      "ĠCÃ¡c": 936,
      "£i": 937,
      "Ġmua": 938,
      "ĠY": 939,
      "Ġáº¥y": 940,
      "Ġchá»©ng": 941,
      "uá»ĳi": 942,
      "Ġcáº£nh": 943,
      "Ġdáº«n": 944,
      "as": 945,
      "il": 946,
      "Ġto": 947,
      "Ġnáº¿u": 948,
      "á»ģ": 949,
      "ĠÄĲiá»ģu": 950,
      "),": 951,
      "ĠsÃ¡ng": 952,
      "Ġbao": 953,
      "ĠgiÃºp": 954,
      "Ġxá»Ń": 955,
      "Ġphá»§": 956,
      "ĠnháºŃp": 957,
      "Ġnghá»ĭ": 958,
      "Ġchu": 959,
      ").": 960,
      "ic": 961,
      "Ġthuá»Ļc": 962,
      "Ġnhau": 963,
      "Ĺi": 964,
      "ĠĊ": 965,
      "ĠgÃ¢y": 966,
      "ĠcÃ¡": 967,
      "Ġkáº¿": 968,
      "Ġchuyá»ĩn": 969,
      "Ġká»³": 970,
      "Ġcá»ķ": 971,
      "ĠW": 972,
      "is": 973,
      "Ġvá»ĩ": 974,
      "Ġdiá»ĩn": 975,
      "Ġhá»Ļ": 976,
      "ĠÃĶng": 977,
      "ĠchÃŃ": 978,
      "...": 979,
      "Ġtrang": 980,
      "Ġgiá»¯a": 981,
      "ĠTuy": 982,
      "ĠbÃłn": 983,
      "ĠnÆ¡i": 984,
      "ĠTá»ķng": 985,
      "á»Ŀi": 986,
      "ĠdÃ¹ng": 987,
      "Ġá»©ng": 988,
      "Ġtrá»£": 989,
      "Ġtá»«ng": 990,
      "áº§y": 991,
      "Ġnghá»ĩ": 992,
      "ĠChÃŃnh": 993,
      "Ġ9": 994,
      "Ã¬n": 995,
      "it": 996,
      "Ġlá»Ŀi": 997,
      "Ġlo": 998,
      "Ġphá»¥c": 999,
      "ĠtiÃªn": 1000,
      "ĠthÃªm": 1001,
      "Ġtiáº¿ng": 1002,
      "Ġbá»ı": 1003,
      "áº·ng": 1004,
      "Ġhuyá»ĩn": 1005,
      "Ġkhá»ı": 1006,
      "Ġchi": 1007,
      "Ġmang": 1008,
      "Ã¡u": 1009,
      "om": 1010,
      "ĠÄĳáº·c": 1011,
      "á»įc": 1012,
      "Ġháº¿t": 1013,
      "Ġchiáº¿c": 1014,
      "ĠváºŃt": 1015,
      "Ġtiáº¿n": 1016,
      "ĠxÃ¡c": 1017,
      "ĠbÃ¬nh": 1018,
      "Ġlá»ĩ": 1019,
      "Ä©nh": 1020,
      "ĠgiÃ¡o": 1021,
      "áº¥m": 1022,
      "Ġbay": 1023,
      "áº¯m": 1024,
      "ĠNgh": 1025,
      "Ġtruyá»ģn": 1026,
      "ĠhÆ°á»Ľng": 1027,
      "ĠÄĳá»©": 1028,
      "ĠkÃ½": 1029,
      "ĠÄĳoÃłn": 1030,
      "Ã´m": 1031,
      "ĠSau": 1032,
      "ĠThá»§": 1033,
      "ĠBÃ¬nh": 1034,
      "ĠMá»Ļt": 1035,
      "Ġsá»©c": 1036,
      "ıi": 1037,
      "Ġháº¡n": 1038,
      "Ã³m": 1039,
      "Ġliá»ĩu": 1040,
      "Ġkiá»ĩn": 1041,
      "ND": 1042,
      "Ġhoáº¡ch": 1043,
      "Ġtá»ĭ": 1044,
      "Ġmáº¹": 1045,
      "áº¡y": 1046,
      "Ã³c": 1047,
      "áº©u": 1048,
      "áº¹p": 1049,
      "ol": 1050,
      "Ġphá»¥": 1051,
      "Ġlá»£i": 1052,
      "ĠlÃºc": 1053,
      "Ġmá»įi": 1054,
      "ĠnguyÃªn": 1055,
      "ĠngÃłnh": 1056,
      "ĠThanh": 1057,
      "Ġbiá»ĥu": 1058,
      "Ġthay": 1059,
      "Ġthanh": 1060,
      "áº¯p": 1061,
      "Ġná»¯a": 1062,
      "ĠNhÃł": 1063,
      "Ġvá»ĳn": 1064,
      "ÃŃt": 1065,
      "ĠO": 1066,
      "ĠAn": 1067,
      "ĠtráºŃn": 1068,
      "Ġtá»ĭch": 1069,
      "ĠchuyÃªn": 1070,
      "ĠthÃ¢n": 1071,
      "Ġtranh": 1072,
      "Ġ20": 1073,
      "us": 1074,
      "Ġbiáº¿n": 1075,
      "Ġ200": 1076,
      "ĠtrÃŃ": 1077,
      "ĠChá»§": 1078,
      "Ġxem": 1079,
      "ĠtÃłu": 1080,
      "ĠthuáºŃt": 1081,
      "Ġtá»Ń": 1082,
      "Ġáº": 1083,
      "ur": 1084,
      "ĠÄĳáº¡t": 1085,
      "os": 1086,
      "Ġlá»ĭch": 1087,
      "Ġcá»ĳ": 1088,
      "Ġgáº·p": 1089,
      "Ġbiá»ĥn": 1090,
      "Ġtá»ķng": 1091,
      "Ġná»Ļi": 1092,
      "Ġtráº£": 1093,
      "Ġmáº¡ng": 1094,
      "ĠKhÃ´ng": 1095,
      "ĠÄĳá»§": 1096,
      "Ġkháº©u": 1097,
      "ad": 1098,
      "Ġnáº¡n": 1099,
      "Ġmáº¥t": 1100,
      "ĠÄĲáº¡i": 1101,
      "Ġchung": 1102,
      "ĠphÃ¢n": 1103,
      "ĠrÃµ": 1104,
      "Ġá»": 1105,
      "iÃªm": 1106,
      "ĠvÃ¹ng": 1107,
      "Ġbu": 1108,
      "Ġviá»ĩn": 1109,
      "Ġngay": 1110,
      "ĠNhÆ°ng": 1111,
      "Ġmá»¥c": 1112,
      "Ġbá»Łi": 1113,
      "Æ°á»£t": 1114,
      "ĠNga": 1115,
      "Ġnguá»ĵn": 1116,
      "ĠdÃłi": 1117,
      "Ġ12": 1118,
      "ĠÄĳáº£m": 1119,
      "ĠbÃ³ng": 1120,
      "Ġká»ĥ": 1121,
      "ĠchÆ°Æ¡ng": 1122,
      "Ġai": 1123,
      "ĠMinh": 1124,
      "Ġnhá»ı": 1125,
      "ĠÄĳáº¹p": 1126,
      "Ġxáº£y": 1127,
      "ĠváºŃn": 1128,
      "Ġcuá»ĳi": 1129,
      "ĠphÃ©p": 1130,
      "ĠkhÃŃ": 1131,
      "Ġxuá»ĳng": 1132,
      "Ġminh": 1133,
      "ĠHá»Ļi": 1134,
      "Ã¹a": 1135,
      "Ġchá»įn": 1136,
      "ĠThá»ĭ": 1137,
      "áº«u": 1138,
      "Ġdanh": 1139,
      "Ġgá»įi": 1140,
      "ĠCÃ³": 1141,
      "ĠHáº£i": 1142,
      "ĠNhá»¯ng": 1143,
      "ĠÄĳÃºng": 1144,
      "Ġmá»Ĺi": 1145,
      "ĠphÃŃa": 1146,
      "Ãªng": 1147,
      "Ġgiáº£": 1148,
      "Ġtrá»±c": 1149,
      "á»Ľi": 1150,
      "ĠthÃŃch": 1151,
      "ĠgÃ³": 1152,
      "Ã£i": 1153,
      "¢nh": 1154,
      "Ġchuáº©n": 1155,
      "ĠtÆ°á»Ľng": 1156,
      "Ġmá»Ł": 1157,
      "ĠlÃ£nh": 1158,
      "Ġláº¥y": 1159,
      "ac": 1160,
      "ĠtrÃ¡ch": 1161,
      "SD": 1162,
      "ĠsÆ¡": 1163,
      "Ġchia": 1164,
      "ĠÄĳáº·t": 1165,
      "Ġcá»Ńa": 1166,
      "Ġtiáº¿t": 1167,
      "įng": 1168,
      "á»¯a": 1169,
      "Ġcháº¿t": 1170,
      "á»ĵm": 1171,
      "le": 1172,
      "ĠgÃ¡i": 1173,
      "áºŃm": 1174,
      "ĠbÃ©": 1175,
      "Ġca": 1176,
      "ĠsÃ¢n": 1177,
      "Ġlao": 1178,
      "Ġtáº¥t": 1179,
      "Ġhá»Ĺ": 1180,
      "ĠluÃ´n": 1181,
      "Ġmáº¯t": 1182,
      "ĠdÃ¹": 1183,
      "Ġ15": 1184,
      "ĠngÃ¢n": 1185,
      "Ġkháº£": 1186,
      "ĠtháºŃt": 1187,
      "CM": 1188,
      "ĠVÃł": 1189,
      "uyáº¿t": 1190,
      "Ġhá»ıi": 1191,
      "un": 1192,
      "ĠhÆ°á»Łng": 1193,
      "á»ħ": 1194,
      "Ġvá»£": 1195,
      "ĠBan": 1196,
      "ĠÄĳá»Ŀi": 1197,
      "ĠvÃ´": 1198,
      "Ġkhoáº£n": 1199,
      "iÃªng": 1200,
      "ĠKhi": 1201,
      "ĠÄĲá»©c": 1202,
      "ĠÃŃt": 1203,
      "Ġchá»ĳng": 1204,
      "ĠNgÆ°á»Ŀi": 1205,
      "ĠNáº¿u": 1206,
      "ĠchÆ¡i": 1207,
      "ĠxÃ©t": 1208,
      "ĠnhÃ³m": 1209,
      "Ġgá»ĵm": 1210,
      "ter": 1211,
      "ĠÄĲÃ´ng": 1212,
      "á»ĥ": 1213,
      "ĠChÃºng": 1214,
      "ĠtÆ°Æ¡ng": 1215,
      "ĠnhÃ¬n": 1216,
      "Ġ11": 1217,
      "Ã¢ng": 1218,
      "Ġchá»©": 1219,
      "ĠÃ¡p": 1220,
      "ĠtoÃ¡n": 1221,
      "ĠkÃ©": 1222,
      "ÃŃn": 1223,
      "Ġchá»ĵng": 1224,
      "Ġcung": 1225,
      "ĠvÃłng": 1226,
      "Ġá»§": 1227,
      "Ġphim": 1228,
      "ĠUSD": 1229,
      "Ġthuáº¿": 1230,
      "Ġná»ķi": 1231,
      "ra": 1232,
      "Æ°á»¡": 1233,
      "Ġtáº¥n": 1234,
      "Ġtá»ĳi": 1235,
      "Ġnghiá»ĩm": 1236,
      "ĠluáºŃn": 1237,
      "ĠdÆ°á»Ľi": 1238,
      "ĠLu": 1239,
      "ĠBáº¯c": 1240,
      "Ġyáº¿u": 1241,
      "Ġdu": 1242,
      "á»³": 1243,
      "Ġtráº¡ng": 1244,
      "ĠÄĳÄĥng": 1245,
      "ĠcÃ¢u": 1246,
      "id": 1247,
      "Ġ0": 1248,
      "ĠÄĳá»ĳc": 1249,
      "Ġcáº¡nh": 1250,
      "ĠThÃłnh": 1251,
      "iáº¿m": 1252,
      "ĠcÃ¢y": 1253,
      "ĠÄĳoáº¡n": 1254,
      "ĠnÃ´ng": 1255,
      "ĠÄĳÃ³ng": 1256,
      "ĠthÆ°": 1257,
      "ĠnghÄ©a": 1258,
      "ĠHoÃłng": 1259,
      "ĠÄĳÃ¡ng": 1260,
      "áºµ": 1261,
      "Ġdá»¥c": 1262,
      "Ġ30": 1263,
      "ĠhÃ£": 1264,
      "ĠSÆ¡n": 1265,
      "Ġcá»¥": 1266,
      "Ġba": 1267,
      "Ġsang": 1268,
      "ot": 1269,
      "ĠlÆ°u": 1270,
      "Ġnhanh": 1271,
      "ĠNgÃły": 1272,
      "ĠPhÃ³": 1273,
      "ĠÄĳÃ¡": 1274,
      "Ġnháº±m": 1275,
      "ĠbÃłi": 1276,
      "Ġ..": 1277,
      "ĠUB": 1278,
      "ĠÄĲÃ¢y": 1279,
      "ing": 1280,
      "¯u": 1281,
      "ĠgiÃ¡m": 1282,
      "ĠkhÄĥn": 1283,
      "ĠtrÃ¡i": 1284,
      "Ġkhá»ıi": 1285,
      "Ġtáº£i": 1286,
      "\".": 1287,
      "Ġdung": 1288,
      "á»ĭp": 1289,
      "Ġghi": 1290,
      "Ġhiá»ĥu": 1291,
      "ĠvÃ²ng": 1292,
      "á»Ńi": 1293,
      "Ġká»¹": 1294,
      "uÃ¢n": 1295,
      "Ġhá»¯u": 1296,
      "Ġáº¢nh": 1297,
      "Ġhá»ĵi": 1298,
      "ĠÄĳÃ¢u": 1299,
      "Ġthuá»ĳc": 1300,
      "Ġkhoa": 1301,
      "Æ°á»¡ng": 1302,
      "ĠÄĳÃ´": 1303,
      "ĠchÃ¢n": 1304,
      "Ġtuáº§n": 1305,
      "Ġtá»Ļi": 1306,
      "ĠTrÆ°á»Ŀng": 1307,
      "Ġtháº¯ng": 1308,
      "Ġphá»ĳi": 1309,
      "uyá»ĩt": 1310,
      "ĠháºŃu": 1311,
      "ĠhÃ´m": 1312,
      "ĠkhÃ¡": 1313,
      "ĠgÃ³p": 1314,
      "ĠcáºŃu": 1315,
      "Ġrá»Ļng": 1316,
      "ĠUBND": 1317,
      "Ġtinh": 1318,
      "ĠtrÃ²": 1319,
      "ĠTrÆ°á»Ľc": 1320,
      "Ġ:": 1321,
      "th": 1322,
      "Ġsáº¯c": 1323,
      "ĠlÃ²ng": 1324,
      "Ġdi": 1325,
      "áº©y": 1326,
      "Ġhiá»ĥm": 1327,
      "ĠLÃª": 1328,
      "Ġngoáº¡i": 1329,
      "ĠThÃ¡i": 1330,
      "ĠNháºŃt": 1331,
      "Ġcháº¡y": 1332,
      "ĠÄĳáº£o": 1333,
      "ĠTÃ¢y": 1334,
      "Ġcá»±c": 1335,
      "ĠcÃłng": 1336,
      "ĠÄĳáº§y": 1337,
      "Ġchá»ĭu": 1338,
      "ĠchÃº": 1339,
      "Ġtho": 1340,
      "Ġpháº£n": 1341,
      "ed": 1342,
      "um": 1343,
      "ĠTráº§n": 1344,
      "Ġtháº©m": 1345,
      "Ġchiá»ģu": 1346,
      "Ġhuy": 1347,
      "ĠmÃ´i": 1348,
      "ĠtÆ°á»Łng": 1349,
      "Ġnghe": 1350,
      "ĠmÃ´": 1351,
      "ĠÄĳÃłn": 1352,
      "uÃ´i": 1353,
      "Ġtháº§n": 1354,
      "Ġnháº¡c": 1355,
      "Ġcháº¥p": 1356,
      "ag": 1357,
      "ĠÄĳá»Ļc": 1358,
      "Ġtrai": 1359,
      "ĳng": 1360,
      "HCM": 1361,
      "Ãłm": 1362,
      "Ġsáº»": 1363,
      "Ġgá»Ńi": 1364,
      "ĠHá»ĵ": 1365,
      "ro": 1366,
      "Ġmáº«u": 1367,
      "ĠTáº¡i": 1368,
      "Ġlá»Ļ": 1369,
      "ĠcÄĥn": 1370,
      "ĠÄĲá»ĵng": 1371,
      "ĠÄĳá»©ng": 1372,
      "Ġtuyá»ĥn": 1373,
      "Ġbá»ķ": 1374,
      "ĠÃģ": 1375,
      "Ġháº¡i": 1376,
      "ĠphÃ¡": 1377,
      "ĠphiÃªn": 1378,
      "ĠcÃ¡n": 1379,
      "Ġvá»įng": 1380,
      "á»Ĺi": 1381,
      "ui": 1382,
      "Ġlá»ħ": 1383,
      "ıa": 1384,
      "Ġcá»Ļng": 1385,
      "áº¡p": 1386,
      "ĠDo": 1387,
      "ĠthuáºŃn": 1388,
      "ĠriÃªng": 1389,
      "ĠnÃ¢ng": 1390,
      "ĠmÃłu": 1391,
      "á»±a": 1392,
      "ap": 1393,
      "ĠLiÃªn": 1394,
      "ĠvÃłi": 1395,
      "Ġnghá»ģ": 1396,
      "ĠDÆ°Æ¡ng": 1397,
      "ĠnghiÃªn": 1398,
      "ĠlÄ©nh": 1399,
      "ĠtuyÃªn": 1400,
      "Ġnhu": 1401,
      "uáº¥n": 1402,
      "Ġphong": 1403,
      "ĠÄĳÃªm": 1404,
      "Ġtuyáº¿n": 1405,
      "and": 1406,
      "Ġnáº±m": 1407,
      "Ġthiáº¿u": 1408,
      "ĠÄĳÃ´ng": 1409,
      "Ġgiá»ĳng": 1410,
      "ĠSá»Ł": 1411,
      "ĠquáºŃn": 1412,
      "áº¿p": 1413,
      "ĠmÃ¹a": 1414,
      "ĠbÆ°á»Ľc": 1415,
      "Ġ18": 1416,
      "Ġhoa": 1417,
      "Ġmáº¡i": 1418,
      "Ġdá»ħ": 1419,
      "ĠThÃ´ng": 1420,
      "ĠThu": 1421,
      "Ġnguy": 1422,
      "ĠNgá»įc": 1423,
      "Ġká»·": 1424,
      "Ġthoáº¡i": 1425,
      "ĠVá»Ľi": 1426,
      "ĠBáº£n": 1427,
      "ĠÄĳa": 1428,
      "oo": 1429,
      "Ãºi": 1430,
      "Ġphiáº¿u": 1431,
      "Ġxa": 1432,
      "Ġpháº¡t": 1433,
      "ĠLong": 1434,
      "10": 1435,
      "Ńa": 1436,
      "Ġtai": 1437,
      "Ġbuá»ķi": 1438,
      "ĠcÆ°": 1439,
      "ĠCÃ´": 1440,
      "Ġgiáº¥y": 1441,
      "ĠhÃ²a": 1442,
      "ĠvÅ©": 1443,
      "ĠTá»«": 1444,
      "Ġsuáº¥t": 1445,
      "ĠIn": 1446,
      "Ġxin": 1447,
      "ĠchÃ¢u": 1448,
      "Ã¨o": 1449,
      "ĠtÃŃn": 1450,
      "tr": 1451,
      "oi": 1452,
      "Ġá»ķ": 1453,
      "ĠsoÃ¡t": 1454,
      "ĠÄĳÃ´i": 1455,
      "li": 1456,
      "ĠVÃ¬": 1457,
      "ĠNgoÃłi": 1458,
      "ĠLan": 1459,
      "ĠQuáº£ng": 1460,
      "ĠdÃłnh": 1461,
      "Ġvai": 1462,
      "ĠÃ´": 1463,
      "Ġ'": 1464,
      "Ġlá»Ńa": 1465,
      "ĠchÃ¡u": 1466,
      "Ġ13": 1467,
      "ĠÄĳáº©y": 1468,
      "ĠHiá»ĩn": 1469,
      "Ġtiá»ĩn": 1470,
      "Ġngá»Ŀ": 1471,
      "ĠniÃªn": 1472,
      "Ġ16": 1473,
      "Ġ14": 1474,
      "ĠKho": 1475,
      "ĠLuáºŃt": 1476,
      "ir": 1477,
      "ĠphÃºt": 1478,
      "Ġdáº§u": 1479,
      "ĠÄĳÃło": 1480,
      "ĠbiÃªn": 1481,
      "ĠvÆ°á»£t": 1482,
      "á»¡": 1483,
      "Ġháº¡": 1484,
      "ĠnuÃ´i": 1485,
      "Ġtá»©": 1486,
      "ĠmÃ´n": 1487,
      "ĠHoa": 1488,
      "ĠthÃºc": 1489,
      "ĠXuÃ¢n": 1490,
      "Ġvui": 1491,
      "ĠlÃ¢u": 1492,
      "TT": 1493,
      "Ġtháº¥p": 1494,
      "á»Ńa": 1495,
      "Ġlá»Ľp": 1496,
      "iá»ģm": 1497,
      "Ġkháº³ng": 1498,
      "Æ°Æ¡i": 1499,
      "ak": 1500,
      "ĠkÃ©o": 1501,
      "Ã³n": 1502,
      "ĠphÃ¹": 1503,
      "ĠxÃºc": 1504,
      "Ġcháº³ng": 1505,
      "Ġnáº·ng": 1506,
      "ĠNÃ³": 1507,
      "ĠnghiÃªm": 1508,
      "ĠÃ¡o": 1509,
      "Ġthiá»ĩn": 1510,
      "Ġduy": 1511,
      "Ġcáº£i": 1512,
      "ĠÄĲáº£ng": 1513,
      "Ġná»£": 1514,
      "Ġcháº¯c": 1515,
      "Ġtháº£o": 1516,
      "Ã¹i": 1517,
      "ĠNghá»ĭ": 1518,
      "ow": 1519,
      "Ġchá»Ĺ": 1520,
      "Ġná»ģn": 1521,
      "Ġkiáº¿m": 1522,
      "ĠHÃ²a": 1523,
      "11": 1524,
      "ew": 1525,
      "ĠcÆ°á»Ŀng": 1526,
      "iá»ħ": 1527,
      "ĠngÃ´i": 1528,
      "Ġtrao": 1529,
      "ĠPhÃ¡p": 1530,
      "ĠÃ¢m": 1531,
      "Ġá»¦": 1532,
      "ĠbÃ¡c": 1533,
      "á»Ľm": 1534,
      "ĠkÃª": 1535,
      "«ng": 1536,
      "ĠphÃ³ng": 1537,
      "Ġgh": 1538,
      "Ġthá»§y": 1539,
      "ĠsÃ¢u": 1540,
      "ĠChá»ī": 1541,
      "Ã£o": 1542,
      "one": 1543,
      "Ãºa": 1544,
      "Ġá»¦y": 1545,
      "ĠthÃ´i": 1546,
      "Ġhá»įp": 1547,
      "áº§ng": 1548,
      "Ġkhá»Łi": 1549,
      "Ġviáº¿t": 1550,
      "eb": 1551,
      "Ġ25": 1552,
      "Ġquay": 1553,
      "Ġ17": 1554,
      "ĠTháº¿": 1555,
      "Ġ100": 1556,
      "ĠNÄĥm": 1557,
      "Ġsai": 1558,
      "ĠsÆ°": 1559,
      "12": 1560,
      "ĠGiÃ¡m": 1561,
      "ĠTÃłi": 1562,
      "Ġbá»©c": 1563,
      "Ġnhá»Ľ": 1564,
      "Ġkhá»ıe": 1565,
      "ĠhÃ¡t": 1566,
      "ĠtrÃ¬": 1567,
      "ĠÄĲá»ĥ": 1568,
      "ĠHÃłn": 1569,
      "ĠÄĲÃ³": 1570,
      "Ġtáº§ng": 1571,
      "Ġá»ķn": 1572,
      "ĠthÃ´n": 1573,
      "ĠViá»ĩc": 1574,
      "Ġbuá»Ļc": 1575,
      "ĠthuÃª": 1576,
      "á»§ng": 1577,
      "Ġá»§y": 1578,
      "ĠthÄĥm": 1579,
      "ĠtÃ¹": 1580,
      "áº·n": 1581,
      "ĠsÃ´ng": 1582,
      "Ġchá»¯a": 1583,
      "Ġchá»īnh": 1584,
      "ov": 1585,
      "Ġsá»Ľm": 1586,
      "20": 1587,
      "Ġmiá»ģn": 1588,
      "Ġninh": 1589,
      "ĠÆ°Æ¡ng": 1590,
      "ĠthÃŃ": 1591,
      "Ġnam": 1592,
      "ĠquÃ½": 1593,
      "ĠhÃºt": 1594,
      "Ġtá»©c": 1595,
      "ĠEm": 1596,
      "ĠPhÃ²ng": 1597,
      "ĠTH": 1598,
      "ĠBÃł": 1599,
      "ĠTiÃªn": 1600,
      "ĠCá»¥c": 1601,
      "ĠKá»³": 1602,
      "ĠphÃª": 1603,
      "Ġvay": 1604,
      "ĠGiang": 1605,
      "Ġkáº»": 1606,
      "Äĳ": 1607,
      "ĠNguyÃªn": 1608,
      "Ġchiáº¿m": 1609,
      "ĠPhÃº": 1610,
      "ut": 1611,
      "Ġdáº¥u": 1612,
      "Ġmáº·c": 1613,
      "Ġtháº¥t": 1614,
      "ĠQuang": 1615,
      "Ġváº»": 1616,
      "Ġ?": 1617,
      "Ãºy": 1618,
      "Ġháº£i": 1619,
      "ĠÄĳÃ¡p": 1620,
      "Ġtáº¡m": 1621,
      "ĠxuyÃªn": 1622,
      "Ġmá»ĳi": 1623,
      "ĠtÃ²a": 1624,
      "ĠHu": 1625,
      "uá»ĳt": 1626,
      "ne": 1627,
      "Ġthá»Ń": 1628,
      "ĠthÃ¡c": 1629,
      "ĠVi": 1630,
      "ĠchÃ¡y": 1631,
      "ĠdÃ²ng": 1632,
      "ĠNhiá»ģu": 1633,
      "ĠÃĤ": 1634,
      "Ġmong": 1635,
      "ĠÄĳáº¥y": 1636,
      "ĠPhÆ°Æ¡ng": 1637,
      "Ġbáº§u": 1638,
      "pp": 1639,
      "Ġláº½": 1640,
      "ĠthÆ°á»Łng": 1641,
      "ĠÄĳau": 1642,
      "Ġsá»£": 1643,
      "Ġbiá»ĩn": 1644,
      "ĠPháº¡m": 1645,
      "Ġnghi": 1646,
      "Ġnghá»ī": 1647,
      "ĠCon": 1648,
      "ĠNgÃ¢n": 1649,
      "ĠmÆ°a": 1650,
      "Ġ50": 1651,
      "Ġsá»Ńa": 1652,
      "Ã£n": 1653,
      "Ġquanh": 1654,
      "Ġkhá»§ng": 1655,
      "ĠKim": 1656,
      "Ġtrá»Ŀi": 1657,
      "ĠÄĲÃł": 1658,
      "Ġtá»ĳc": 1659,
      "ĠphÆ°á»Ŀng": 1660,
      "ĠTÃ¢n": 1661,
      "á»ĳt": 1662,
      "ĠtÃ¡i": 1663,
      "LV": 1664,
      "ÄĲT": 1665,
      "Ġda": 1666,
      "Ġsung": 1667,
      "á»Ļp": 1668,
      "ig": 1669,
      "įc": 1670,
      "Ġkháº¯c": 1671,
      "Ġuá»ĳng": 1672,
      "Ġ24": 1673,
      "ĠPhÃ¡t": 1674,
      "ĠHá»ĵng": 1675,
      "Ġ2015": 1676,
      "Ġtá»ĵ": 1677,
      "ĠCÆ¡": 1678,
      "ĠDN": 1679,
      "NG": 1680,
      "ĠcáºŃp": 1681,
      "Ġchuyáº¿n": 1682,
      "ĠBáº£o": 1683,
      "ton": 1684,
      "Ġngá»ĵi": 1685,
      "Ġcá»¥c": 1686,
      "Ġthiá»ĩt": 1687,
      "ĠÆ°u": 1688,
      "ĠtrÃ¡nh": 1689,
      "Ġ2016": 1690,
      "ĠLe": 1691,
      "av": 1692,
      "iá»ħm": 1693,
      "Ġgiai": 1694,
      "Ġtá»ı": 1695,
      "NH": 1696,
      "ĠkÃŃch": 1697,
      "ĠlÆ°Æ¡ng": 1698,
      "ĠHLV": 1699,
      "Ġcha": 1700,
      "Ã²i": 1701,
      "Ġrá»«ng": 1702,
      "ĠNinh": 1703,
      "ĠHá»į": 1704,
      "áºµn": 1705,
      "ĠChÃ¢u": 1706,
      "ĠMar": 1707,
      "Ġlá»Ĺi": 1708,
      "á»ĭnh": 1709,
      "ĠChÃŃ": 1710,
      "ent": 1711,
      "Ġ199": 1712,
      "ĠquÃ¡n": 1713,
      "Ġchá»Ŀ": 1714,
      "Ġtá»Ļc": 1715,
      "Ġp": 1716,
      "ĠtrÃº": 1717,
      "up": 1718,
      "ĠnÃ³ng": 1719,
      "Ġháº¡t": 1720,
      "Ġxanh": 1721,
      "ĠSy": 1722,
      "ĠkhÃ¡m": 1723,
      "Ġháº¡ng": 1724,
      "Ã£y": 1725,
      "ĠÄĳá»ı": 1726,
      "ĠDá»±": 1727,
      "ĠVÅ©": 1728,
      "ĠÄĲá»ĳi": 1729,
      "Ġbinh": 1730,
      "....": 1731,
      "re": 1732,
      "Ġ21": 1733,
      "ĠcÃ¡nh": 1734,
      "ĠRe": 1735,
      "ĠBÃªn": 1736,
      "Ġ22": 1737,
      "\",": 1738,
      "VN": 1739,
      "áºµng": 1740,
      "ine": 1741,
      "ĠlÃłng": 1742,
      "ĠHai": 1743,
      "ĠCÃ²n": 1744,
      "Ġma": 1745,
      "ĠdÆ°á»¡ng": 1746,
      "Ġtá»Ŀ": 1747,
      "Ġa": 1748,
      "ĠthÃº": 1749,
      "ul": 1750,
      "ĠÄĲáº¿n": 1751,
      "Ġsáºµn": 1752,
      "ie": 1753,
      "iáº¿p": 1754,
      "ĠmÃ¡u": 1755,
      "iv": 1756,
      "Ġtrá»ĵng": 1757,
      "Ġxáº¿p": 1758,
      "ĠbÃły": 1759,
      "ĠtÃ´": 1760,
      "Ġlá»ĩnh": 1761,
      "ĠSt": 1762,
      "Ġlá»±a": 1763,
      "ob": 1764,
      "ĠthÃ¡i": 1765,
      "ĠchÄĥm": 1766,
      "19": 1767,
      "Ġcam": 1768,
      "ĠGiá»": 1769,
      "Ġtháº³ng": 1770,
      "ion": 1771,
      "ĠTuáº¥n": 1772,
      "Ġbáº£ng": 1773,
      "ĠTriá»ģu": 1774,
      "Ġnhá»Ŀ": 1775,
      "ĠgiÃłnh": 1776,
      "ĠNáºµng": 1777,
      "Ġcáº§m": 1778,
      "ab": 1779,
      "ĠMai": 1780,
      "Ġgiáº¿t": 1781,
      "Ġmáº¯c": 1782,
      "Ġkhá»ĳi": 1783,
      "ĠÃ¡nh": 1784,
      "ĠÃĤu": 1785,
      "Ġná»Ļp": 1786,
      "TC": 1787,
      "ard": 1788,
      "ĠhÃ´n": 1789,
      "ĠkhÃ¡n": 1790,
      "Ã¨n": 1791,
      "Ġláº¡c": 1792,
      "ĠhÃ£y": 1793,
      "Ġf": 1794,
      "Ġcáº¥u": 1795,
      "ĠsiÃªu": 1796,
      "ran": 1797,
      "ĠÆ°á»Ľc": 1798,
      "ĠChi": 1799,
      "ĠNhÆ°": 1800,
      "Ġniá»ĩm": 1801,
      "ĠnghÃ¨o": 1802,
      "Ġcoi": 1803,
      "ĠlÃ¡i": 1804,
      "ĠÃŃch": 1805,
      "ĠAr": 1806,
      "Ġluyá»ĩn": 1807,
      "Ġná»ĳi": 1808,
      "Ġmáº¥y": 1809,
      "ĠhÃ£ng": 1810,
      "Ġ2017": 1811,
      "Ġmay": 1812,
      "ĠmáºŃt": 1813,
      "ria": 1814,
      "ĠBÃ¡o": 1815,
      "ĠAl": 1816,
      "ex": 1817,
      "Ġngá»§": 1818,
      "Ġsáº¯p": 1819,
      "Ġloáº¡t": 1820,
      "ĠVN": 1821,
      "á»¥p": 1822,
      "Ġdáº¡y": 1823,
      "Ġnhiá»ħm": 1824,
      "Ġsuy": 1825,
      "Ġ23": 1826,
      "á»«a": 1827,
      "ĠmÃłn": 1828,
      "Ġhá»įa": 1829,
      "Ġká»ĭp": 1830,
      "Ġná»ķ": 1831,
      "Ġin": 1832,
      "Ġtá»ĵn": 1833,
      "Ġo": 1834,
      "TV": 1835,
      "ĠÄĳÃ³n": 1836,
      "ĠZ": 1837,
      "amp": 1838,
      "ĠÄĳá»©a": 1839,
      "ly": 1840,
      "Ġtrá»¥": 1841,
      "ist": 1842,
      "Ġá»ŀ": 1843,
      "Ġquáº§n": 1844,
      "á»£i": 1845,
      "Ġtáº·ng": 1846,
      "Ġ2014": 1847,
      "Ġtáº¯c": 1848,
      "á»©t": 1849,
      "Ġháº¯n": 1850,
      "Ġhá»©": 1851,
      "Ġdáº¡ng": 1852,
      "Ġthá»ıa": 1853,
      "ĠTáº¿t": 1854,
      "ĠBa": 1855,
      "Ġgáº¯n": 1856,
      "Ġcháº¯n": 1857,
      "ĠÄĲÆ°á»£c": 1858,
      "Ġtuyá»ĩt": 1859,
      "ĠNew": 1860,
      "Ġkhá»ķ": 1861,
      "Ġsuá»ĳt": 1862,
      "PT": 1863,
      "ĠLinh": 1864,
      "ĠcÅ©": 1865,
      "ĠcÃ¢n": 1866,
      "ĠThÆ°Æ¡ng": 1867,
      "ĠÄĳá»Ļt": 1868,
      "ĠSyria": 1869,
      "Ġquen": 1870,
      "Ġáº¥n": 1871,
      "op": 1872,
      "Ġcáº¯t": 1873,
      "ĠrÃºt": 1874,
      "Ġnhiá»ĩt": 1875,
      "ĠlÆ°á»£c": 1876,
      "ĠÄĳÃŃch": 1877,
      "ĠtháºŃm": 1878,
      "Ġtháº§u": 1879,
      "Ġnháº¹": 1880,
      "Ġtháº§y": 1881,
      "ĠthoÃ¡t": 1882,
      "¯ng": 1883,
      "ue": 1884,
      "ĠVáºŃy": 1885,
      "Ġtráº¯ng": 1886,
      "Ġsong": 1887,
      "ĠCÅ©ng": 1888,
      "Ġthá»¥": 1889,
      "ĠKinh": 1890,
      "30": 1891,
      "Ġtáº§m": 1892,
      "ĠNhÃ¢n": 1893,
      "Ãµi": 1894,
      "ĠquÃª": 1895,
      "ĠngÄĥn": 1896,
      "ĠthiÃªn": 1897,
      "ĠgiÃ¡c": 1898,
      "ĠcáºŃn": 1899,
      "ĠlÃ£i": 1900,
      "ĠmÃ³n": 1901,
      "ĠtrÄĥm": 1902,
      "Ġchá»£": 1903,
      "Ġláº¯m": 1904,
      "Ġthá»«a": 1905,
      "ĠbÃ¡nh": 1906,
      "ĠGia": 1907,
      "Ġ40": 1908,
      "ĠmÃ£": 1909,
      "Ġkháº£o": 1910,
      "ĠVá»ģ": 1911,
      "Ã¨m": 1912,
      "ĠHiá»ĩp": 1913,
      "Ã³t": 1914,
      "Ġdá»¯": 1915,
      "Ġ27": 1916,
      "Ġtruy": 1917,
      "Ġtá»ĩ": 1918,
      "Ġvá»¯ng": 1919,
      "Ġcháº·t": 1920,
      "Ġxáº¥u": 1921,
      "ĠsÃºng": 1922,
      "ĠchÃ³ng": 1923,
      "ĠphÃºc": 1924,
      "Ġlai": 1925,
      "ik": 1926,
      "uá»ķi": 1927,
      "ĠphÃ¡n": 1928,
      "á»Ļn": 1929,
      "Ġdá»«ng": 1930,
      "ĠdÃ¢y": 1931,
      "ĠtáºŃn": 1932,
      "Ġ&": 1933,
      "ĠCáº£nh": 1934,
      "Ġ000": 1935,
      "ou": 1936,
      "ĠlÆ°á»£t": 1937,
      "Ġgá»ĳc": 1938,
      "Ġvong": 1939,
      "á»·": 1940,
      "ah": 1941,
      "ĠlÃ¡": 1942,
      "Ġnháº¥n": 1943,
      "ĠTiáº¿n": 1944,
      "Ġláº¡": 1945,
      "Ġ2018": 1946,
      "ĠÄĳá»įc": 1947,
      "Ġxung": 1948,
      "Th": 1949,
      "200": 1950,
      "áº¹n": 1951,
      "Ġbáº¯n": 1952,
      "ĠchÃºt": 1953,
      "ĠSá»±": 1954,
      "ĠrÆ¡i": 1955,
      "Ġw": 1956,
      "ĠnÃªu": 1957,
      "Ġphi": 1958,
      "ĠsÃłng": 1959,
      "ĠHÃ¹ng": 1960,
      "ĠdÆ°": 1961,
      "ĠlÅ©": 1962,
      "Ġngáº¡i": 1963,
      "Ġ2013": 1964,
      "Æ¯": 1965,
      "ĠcÆ°á»Ŀi": 1966,
      "Ġtrá»«": 1967,
      "50": 1968,
      "ĠÄĲoÃłn": 1969,
      "Ġlá»¥c": 1970,
      "Ġi": 1971,
      "Ġcan": 1972,
      "Ġtháº£i": 1973,
      "ĠnÃºi": 1974,
      "Ġtiá»ĥu": 1975,
      "Ġtráº£i": 1976,
      "Ġgiáº£n": 1977,
      "ĠkhÃ³a": 1978,
      "Ġthao": 1979,
      "Ġliá»ĩt": 1980,
      "ĠDÅ©ng": 1981,
      "ıng": 1982,
      "ĠthÆ¡": 1983,
      "Ġ28": 1984,
      "Ġ26": 1985,
      "ĠÄĳÆ°Æ¡ng": 1986,
      "se": 1987,
      "Ġá»§ng": 1988,
      "ĠSh": 1989,
      "Ġchá»©a": 1990,
      "Ġmá»Ļ": 1991,
      "ĠpháºŃn": 1992,
      "Ġmá»Ŀi": 1993,
      "Ġngo": 1994,
      "ĠsÃ³ng": 1995,
      "Ġduyá»ĩt": 1996,
      "ĠTT": 1997,
      "Ġsáº¡ch": 1998,
      "Ġbáº¡c": 1999,
      "ĠQuÃ¢n": 2000,
      "ĠÄĳen": 2001,
      "Ġphá»ķ": 2002,
      "ĠYÃªn": 2003,
      "ck": 2004,
      "ĠHÆ°Æ¡ng": 2005,
      "ĠhÆ¡i": 2006,
      "ĠThá»Ŀi": 2007,
      "ĠNgay": 2008,
      "ĠViet": 2009,
      "Ġbáº¡i": 2010,
      "á»±u": 2011,
      "Ġthá»ĭt": 2012,
      "ĠBáº¡n": 2013,
      "ĠkhoÃ¡n": 2014,
      "ĠkÃ©m": 2015,
      "Ġ2012": 2016,
      "ĠÄĲÃ¬nh": 2017,
      "ĠVá»¥": 2018,
      "ĠNgoáº¡i": 2019,
      "Ġngáº¯n": 2020,
      "ĠLÃ½": 2021,
      "ina": 2022,
      "Ġkia": 2023,
      "Ġchá»Ł": 2024,
      "ĠÄĳÃ¡m": 2025,
      "Ġháº§u": 2026,
      "ĠbÃŃ": 2027,
      "ĠkhÃºc": 2028,
      "Ġdá»ĭp": 2029,
      "Æ°á»Ľp": 2030,
      "á»³nh": 2031,
      "Ġchá»¥p": 2032,
      "od": 2033,
      "Ġná»Ĺ": 2034,
      "Ä©a": 2035,
      "ĠTáºŃp": 2036,
      "ĠThá»©": 2037,
      "Ġcáº¥m": 2038,
      "ĠHÃ³a": 2039,
      "ĠDÃ¹": 2040,
      "Ġhy": 2041,
      "ĠKhÃ¡nh": 2042,
      "Ġkiá»ĥu": 2043,
      "ĠrÃłng": 2044,
      "/.": 2045,
      "ĠLÃ¢m": 2046,
      "Ġdáº§n": 2047,
      "ĠbÄĥng": 2048,
      "ĠKhu": 2049,
      "ĠMan": 2050,
      "Ġáº¤": 2051,
      "ev": 2052,
      "á»§y": 2053,
      "Ġ29": 2054,
      "Ġsá»¹": 2055,
      "ĠBá»ĩnh": 2056,
      "Ġtáº¡p": 2057,
      "ĠHÆ°ng": 2058,
      "ĠsÃ³c": 2059,
      "est": 2060,
      "ĠvÃ©": 2061,
      "ĠÄĳoÃ¡n": 2062,
      "ĠThá»±c": 2063,
      "ĠhoÃłng": 2064,
      "ĠtrÆ°Æ¡ng": 2065,
      "ĠnghÃ¬n": 2066,
      "ĠQuyáº¿t": 2067,
      "Ġnáº¯m": 2068,
      "ĠÄĲH": 2069,
      "Ġgáº¯ng": 2070,
      "ĠhÃłi": 2071,
      "ĠtÃºy": 2072,
      "Ġ2010": 2073,
      "ok": 2074,
      "Ġ2011": 2075,
      "Ġmá»«ng": 2076,
      "ĠTrÆ°á»Łng": 2077,
      "ri": 2078,
      "Ġquá»¹": 2079,
      "%.": 2080,
      "ĠÆ¡n": 2081,
      "Ġrá»Ŀi": 2082,
      "iáº¿ng": 2083,
      "ĠBÃŃ": 2084,
      "Ġchá»¥c": 2085,
      "ub": 2086,
      "net": 2087,
      "art": 2088,
      "ĠViá»ĩn": 2089,
      "ill": 2090,
      "Ġnháº¯c": 2091,
      "ĠHÃłng": 2092,
      "ĠGD": 2093,
      "ĠbÃ£o": 2094,
      "ĠThe": 2095,
      "Ġthiá»ĩu": 2096,
      "SN": 2097,
      "Ġniá»ģm": 2098,
      "Ġláº¡nh": 2099,
      "Ph": 2100,
      "ess": 2101,
      "ĠÄĳá»ĭch": 2102,
      "Ġmiá»ħn": 2103,
      "ce": 2104,
      "Ġchá»¯": 2105,
      "Ġháº¡nh": 2106,
      "ĠNghá»ĩ": 2107,
      "ĠÄĲáº§u": 2108,
      "Ġthuyáº¿t": 2109,
      "ĠÄĳem": 2110,
      "ĠkÃªu": 2111,
      "Ġsáº¯t": 2112,
      "Ġbá»ĵi": 2113,
      "ĠCP": 2114,
      "ĠbáºŃt": 2115,
      "ĠÄĳá»¡": 2116,
      "ĠdÃµi": 2117,
      "Ġtim": 2118,
      "te": 2119,
      "Ġcuá»ĳn": 2120,
      "Ġbá»Ŀ": 2121,
      "Ġxong": 2122,
      "Ġnguyá»ĩn": 2123,
      "ĠkÃ¨m": 2124,
      "ĠNha": 2125,
      "á»Ļm": 2126,
      "Ġkhuyáº¿n": 2127,
      "ald": 2128,
      "ry": 2129,
      "ich": 2130,
      "ĠTrang": 2131,
      "ĠÄĳua": 2132,
      "ĠChÆ°Æ¡ng": 2133,
      "Ġchiáº¿u": 2134,
      "Ã³i": 2135,
      "Ġháº¥p": 2136,
      "Ġru": 2137,
      "ĠLa": 2138,
      "Ġhá»§y": 2139,
      "23": 2140,
      "Æ°á»£u": 2141,
      "Ġquáº£ng": 2142,
      "don": 2143,
      "ĠHÃ£y": 2144,
      "Ġtáº¥m": 2145,
      "Ġtráº¥n": 2146,
      "ty": 2147,
      "ĠThá»§y": 2148,
      "ĠTrÃªn": 2149,
      "ĠcháºŃm": 2150,
      "ĠPhong": 2151,
      "ĠtÃ´n": 2152,
      "Ġngang": 2153,
      ",.": 2154,
      "ĠphÃ³": 2155,
      "ĠÄĳÃ²i": 2156,
      "ank": 2157,
      "ĠxÄĥng": 2158,
      "Ġláº¯ng": 2159,
      "ĠCS": 2160,
      "Ġmá»ĩ": 2161,
      "ell": 2162,
      "ĠJo": 2163,
      "Ġkim": 2164,
      "EA": 2165,
      "ĠÄĲáº·c": 2166,
      "ĠÄĲá»Ļ": 2167,
      "ĠbÃło": 2168,
      "ĠÄĳá»£i": 2169,
      "ĠnháºŃt": 2170,
      "ĠBar": 2171,
      "Æ°á»Ŀn": 2172,
      "ĠchÃłng": 2173,
      "ack": 2174,
      "Ġliá»ģn": 2175,
      "rai": 2176,
      "ĠbÃ£i": 2177,
      "ook": 2178,
      "ĠlÆ°á»Ľi": 2179,
      "ĠVinh": 2180,
      "Ġná»Ńa": 2181,
      "ģm": 2182,
      "Ġká»ĭch": 2183,
      "ĠGiÃ¡o": 2184,
      "Ġcháº·n": 2185,
      "ĠPhÃºc": 2186,
      "ĠrÆ°á»£u": 2187,
      "ĠTa": 2188,
      "Ġthá»ķ": 2189,
      "Ġ198": 2190,
      "ĠTÆ°": 2191,
      "Ġ60": 2192,
      "ump": 2193,
      "ĠcÆ°á»Ľp": 2194,
      "ĠÄĳáº£ng": 2195,
      "Ġdá»©t": 2196,
      "og": 2197,
      "Ġáº¤n": 2198,
      "ĠhÆ°Æ¡ng": 2199,
      "ĠcÃł": 2200,
      "Ng": 2201,
      "ĠkÃŃnh": 2202,
      "ĠloÃłi": 2203,
      "ĠVÄ©nh": 2204,
      "kh": 2205,
      "ĠÄĳÃłm": 2206,
      "ĠKáº¿t": 2207,
      "ĠcÆ°á»Ľi": 2208,
      "ĠPhan": 2209,
      "Ġkháº¯p": 2210,
      "ĠQuy": 2211,
      "ĠngÃ´n": 2212,
      "ines": 2213,
      "Ġthuyá»ģn": 2214,
      "ĠBiÃªn": 2215,
      "ĠmÃ¡i": 2216,
      "ĠgiÃ³": 2217,
      "á»įa": 2218,
      "Ġhá»ģ": 2219,
      "son": 2220,
      "ore": 2221,
      "ĠVÃło": 2222,
      "Ġkhiá»ĥn": 2223,
      "ĠngÆ°á»£c": 2224,
      "ian": 2225,
      "ĠCá»¥": 2226,
      "ĠMáº·c": 2227,
      "az": 2228,
      "Ġthua": 2229,
      "ĠPar": 2230,
      "á»īnh": 2231,
      "ague": 2232,
      "Ġxu": 2233,
      "ĠHÄĲ": 2234,
      "ĠÄĲÃło": 2235,
      "ĠCÃ¹ng": 2236,
      "Ġtuy": 2237,
      "Ġcáº·p": 2238,
      "Ġsá»©": 2239,
      "ĠmÃª": 2240,
      "ĠSÃ¡ng": 2241,
      "ĠDu": 2242,
      "ĠDÃ¢n": 2243,
      "ĠTáº¥t": 2244,
      "ĠhÃ¨": 2245,
      "ĠSa": 2246,
      "£t": 2247,
      "ĠbÃ¢y": 2248,
      "īnh": 2249,
      "ĠTrump": 2250,
      "Ġhiá»ĩp": 2251,
      "Ġngá»¯": 2252,
      "Ġsá»¯a": 2253,
      "ĠGiáº¥y": 2254,
      "ĠHuy": 2255,
      "./.": 2256,
      "GT": 2257,
      "ĠChá»ĭ": 2258,
      "ĠThiÃªn": 2259,
      "ĠCáºŃu": 2260,
      "Ġbang": 2261,
      "ĠPhi": 2262,
      "ĠtrÃ´ng": 2263,
      "ĠQuáº£n": 2264,
      "Ġbuá»ĵn": 2265,
      "ĠÄĲá»ĭnh": 2266,
      "ĠmÅ©": 2267,
      "Ġmáº½": 2268,
      "ĠdÃłng": 2269,
      "ĠÄĳá»£t": 2270,
      "ĠcÆ¡n": 2271,
      "ĠÃĲ": 2272,
      "á»įt": 2273,
      "ĠtÃ³c": 2274,
      "io": 2275,
      "ĠtÃ¡": 2276,
      "Ġngá»«ng": 2277,
      "ĠÄĲá»Ļi": 2278,
      "ĠngÆ°Æ¡i": 2279,
      "Ġ31": 2280,
      "Ġhuáº¥n": 2281,
      "ld": 2282,
      "ĠquÃł": 2283,
      "Ġláº«n": 2284,
      "ĠBr": 2285,
      "ĠchÃło": 2286,
      "ĠPV": 2287,
      "Ġdá»įa": 2288,
      "ĠcÃº": 2289,
      "LÄĲ": 2290,
      "įt": 2291,
      "Ġpha": 2292,
      "Ġlá»ĳi": 2293,
      "Ġdá»±a": 2294,
      "ĠGiÃ¡": 2295,
      "Ġly": 2296,
      "Ġlinh": 2297,
      "ĠMal": 2298,
      "Ġcáº£ng": 2299,
      "ĠgiÃłu": 2300,
      "ĠgÆ°Æ¡ng": 2301,
      "Ġ500": 2302,
      "ĠtháºŃp": 2303,
      "ĠngÃłn": 2304,
      "Ġthai": 2305,
      "ib": 2306,
      "Ġdá»ĭ": 2307,
      "Ġná»Ĺi": 2308,
      "Ġbá»įn": 2309,
      "Ġrá»§": 2310,
      "Ġxá»©": 2311,
      "Ġdá»¥": 2312,
      "ey": 2313,
      "Ġcháº¥m": 2314,
      "ĠsÃłn": 2315,
      "ĠmÆ¡": 2316,
      "ĠXÃ¢y": 2317,
      "ĠCáº§n": 2318,
      "Ã©m": 2319,
      "XH": 2320,
      "ĠLo": 2321,
      "co": 2322,
      "ĠVÃ¢n": 2323,
      "ĠyÃªn": 2324,
      "ff": 2325,
      "Ġtrá»¯": 2326,
      "ĠCho": 2327,
      "ĠHá»": 2328,
      "ĠInter": 2329,
      "ĠmÃły": 2330,
      "ĠbuÃ´n": 2331,
      "st": 2332,
      "ĠbÃ¨": 2333,
      "Ġlan": 2334,
      "Ã©o": 2335,
      "Ġbom": 2336,
      "á»Ľt": 2337,
      "ĠII": 2338,
      "ĠGiao": 2339,
      "ĠKhoa": 2340,
      "ĠTPHCM": 2341,
      "ĠCup": 2342,
      "ĠgÃ³i": 2343,
      "Ġxo": 2344,
      "ĠnhuáºŃn": 2345,
      "our": 2346,
      "ĠdáºŃy": 2347,
      "2015": 2348,
      "iáº¿c": 2349,
      "ez": 2350,
      "ĠÄĳuá»ķi": 2351,
      "CC": 2352,
      "ĠlÃ¢m": 2353,
      "ĠNÃ´ng": 2354,
      "ĠTháº¯ng": 2355,
      "Ġkháº¥u": 2356,
      "Ġtung": 2357,
      "ĠkhÃŃch": 2358,
      "Ġtrá»Ļm": 2359,
      "ity": 2360,
      "Ġdao": 2361,
      "ĠthÃ¡ch": 2362,
      "ĠThuáºŃn": 2363,
      "ĠChiáº¿n": 2364,
      "Ġrau": 2365,
      "Ġkháº©n": 2366,
      "Ġbá»ĳi": 2367,
      "ĠCuá»Ļc": 2368,
      "Ġcá»±u": 2369,
      "onald": 2370,
      "2016": 2371,
      "ĠBá»Łi": 2372,
      "Ġtrá»ĳn": 2373,
      "krai": 2374,
      "ĠgiÃł": 2375,
      "ĠPhil": 2376,
      "Ġhoáº£ng": 2377,
      "ĠGiáº£i": 2378,
      "Ġvá»¡": 2379,
      "áº¢nh": 2380,
      "ĠSÃłi": 2381,
      "ĠCao": 2382,
      "Ġmá»ģm": 2383,
      "%,": 2384,
      "ĠÄĲiá»ĩn": 2385,
      "ĠNH": 2386,
      "ĠÄĳe": 2387,
      "Ġthiá»ĥu": 2388,
      "ĠUkrai": 2389,
      "NN": 2390,
      "ĠÄĳáº¡n": 2391,
      "Ġ70": 2392,
      "ĠtÃºi": 2393,
      "ĠChÃºa": 2394,
      "ord": 2395,
      "á»¯u": 2396,
      "ĠthÃ¹": 2397,
      "com": 2398,
      "ĠquÃªn": 2399,
      "ĠnÃłng": 2400,
      "ĠÃł": 2401,
      "Ġva": 2402,
      "ĠLÃło": 2403,
      "ĠÄĳÃ¨n": 2404,
      "Ġmai": 2405,
      "Ġtri": 2406,
      "ĠAS": 2407,
      "ĠtrÆ°ng": 2408,
      "áº³n": 2409,
      "Ġtháº»": 2410,
      "Ġgáº¥p": 2411,
      "Ġcháº¡m": 2412,
      "Ġláº»": 2413,
      "Ġrá»ĳi": 2414,
      "ain": 2415,
      "ĠHy": 2416,
      "ĠtrÃło": 2417,
      "sia": 2418,
      "ĠLÃºc": 2419,
      "ama": 2420,
      "ĠAi": 2421,
      "ĠThÆ°á»Ŀng": 2422,
      "Ġváº¿t": 2423,
      "á»¥y": 2424,
      "ĠHá»ĵi": 2425,
      "ĠGÃ²n": 2426,
      "lip": 2427,
      "ĠgÃł": 2428,
      "Ġgá»Ĺ": 2429,
      "ĠTiá»ģn": 2430,
      "ĠCá»Ļng": 2431,
      "ĠCÃ¡ch": 2432,
      "ĠcÄĥng": 2433,
      "vn": 2434,
      "ĠmÃ£i": 2435,
      "ĠÄĳá»«ng": 2436,
      "ers": 2437,
      "ĠngÅ©": 2438,
      "ĠngáºŃp": 2439,
      "Ġcháº¥n": 2440,
      "all": 2441,
      "Ġsá»ķ": 2442,
      "ĠHá»¯u": 2443,
      "ĠdÃ¡ng": 2444,
      "Ġtráº¡m": 2445,
      "oy": 2446,
      "ort": 2447,
      "ĠCH": 2448,
      "ĠrÃ¡c": 2449,
      "Ġkm": 2450,
      "ĠCÃ¡i": 2451,
      "Ġtráº¡i": 2452,
      "ĠhÃło": 2453,
      "ĠTrÆ°Æ¡ng": 2454,
      "Ch": 2455,
      "ĠHCM": 2456,
      "ĠtrÃºc": 2457,
      "ĠkhuÃ´n": 2458,
      "ĠhÃ´": 2459,
      "Ġgá»¡": 2460,
      "ĠkhÃ¡ng": 2461,
      "ĠtÆ°Æ¡i": 2462,
      "ÃĢ": 2463,
      "if": 2464,
      "ud": 2465,
      "Ãªnh": 2466,
      "ĠkÃªnh": 2467,
      "Ġnáº¯ng": 2468,
      "Ġro": 2469,
      "Ã£ng": 2470,
      "ĠdÆ°Æ¡ng": 2471,
      "Ġmu": 2472,
      "ĠThÆ°á»£ng": 2473,
      "ĠIs": 2474,
      "nam": 2475,
      "Ġ2009": 2476,
      "Ġmá»¹": 2477,
      "Ġnháº£y": 2478,
      "ĠngÃ£": 2479,
      "2017": 2480,
      "ĠSá»ĳ": 2481,
      "Ġbá»ģn": 2482,
      "Ġla": 2483,
      "Ġe": 2484,
      "ĠMá»Ĺi": 2485,
      "ĠKiá»ĥm": 2486,
      "ĠCÆ°á»Ŀng": 2487,
      "ĠÄĳÃłi": 2488,
      "ĠÄĳoáº¡t": 2489,
      "ĠnhiÃªu": 2490,
      "Ġháº¹n": 2491,
      "ĠMy": 2492,
      "ĠÄĳá»īnh": 2493,
      "ĠtrÃŃch": 2494,
      "Ġáº©n": 2495,
      "Ġ197": 2496,
      "ĠtráºŃt": 2497,
      "ĠDuy": 2498,
      "ĠlÃºa": 2499,
      "Ġsáº¡n": 2500,
      "ĠPhÆ°á»Ľc": 2501,
      "kg": 2502,
      "ĠtháºŃn": 2503,
      "ĠbÃ²": 2504,
      "ĠCar": 2505,
      "LB": 2506,
      "ipp": 2507,
      "ĠÄĳáºŃp": 2508,
      "Ġgháº¿": 2509,
      "Ġphá»©c": 2510,
      "áºŃc": 2511,
      "ĠÄĳÃ¢m": 2512,
      "TP": 2513,
      "ĠtÃ¡n": 2514,
      "Ġháº³n": 2515,
      "CN": 2516,
      "ĠVÃµ": 2517,
      "Ġ01": 2518,
      "ĠBl": 2519,
      "ĠÄĲÃłi": 2520,
      "Ġung": 2521,
      "ĠÃ©p": 2522,
      "Ġvua": 2523,
      "Ġbáº¡o": 2524,
      "Ġáº¥m": 2525,
      "ĠTrá»įng": 2526,
      "Ġgiá»įng": 2527,
      "ĠTÃ¢m": 2528,
      "Ġmáº¯n": 2529,
      "Ġbá»ĳn": 2530,
      "Ġngáº§m": 2531,
      "ĠgÃ³c": 2532,
      "22": 2533,
      "Ġ80": 2534,
      "Ġmáº¡c": 2535,
      "ĠbáºŃc": 2536,
      "man": 2537,
      "ĠUkraine": 2538,
      "ĠÄĳáº³ng": 2539,
      "ĠBiá»ĥn": 2540,
      "ber": 2541,
      "ĠQua": 2542,
      "2014": 2543,
      "Ġgiam": 2544,
      "Ġloáº¡n": 2545,
      "Ġhuyáº¿t": 2546,
      "ĠHuáº¿": 2547,
      "ĠCá»ķ": 2548,
      "iá»ĩng": 2549,
      "Ġtháº£m": 2550,
      "ebook": 2551,
      "ĠmÆ°u": 2552,
      "sen": 2553,
      "ĠSao": 2554,
      "ĠBH": 2555,
      "ĠbÃ¹": 2556,
      "Ġ300": 2557,
      "Ġkiá»ĩm": 2558,
      "ĠngÆ°": 2559,
      "ĠnhÃ©": 2560,
      "orld": 2561,
      "ha": 2562,
      "Ġ35": 2563,
      "Ġgiáº£ng": 2564,
      "ĠTÃ¬nh": 2565,
      "ĠBÃ¹i": 2566,
      "ĠLÃłm": 2567,
      "ĠLÃł": 2568,
      "Ġbá»¯a": 2569,
      "ĠChiá»ģu": 2570,
      "ĠvÆ°á»Ŀn": 2571,
      "Ġláº¯p": 2572,
      "ĠKáº¿": 2573,
      "ĠIran": 2574,
      "ĠtrÃ¹ng": 2575,
      "ĠCÄĲ": 2576,
      "ĠhÃ¹ng": 2577,
      "ĠPr": 2578,
      "ĠLÆ°Æ¡ng": 2579,
      "ĠSam": 2580,
      "acebook": 2581,
      "Ġlá»Ĺ": 2582,
      "ĠCA": 2583,
      "ĠToÃłn": 2584,
      "ĠCáº£": 2585,
      "Ġtiá»ģm": 2586,
      "ĠMáº·t": 2587,
      "ĠtrÃºng": 2588,
      "Ġcháº£y": 2589,
      "ĠHá»£p": 2590,
      "ĠLá»Ļc": 2591,
      "Ġgáº¡o": 2592,
      "ĠÄĳÃ£i": 2593,
      "Ġ36": 2594,
      "Ġhá»©ng": 2595,
      "ec": 2596,
      "Ġmiá»ĩng": 2597,
      "Ġlá»«a": 2598,
      "ĠVÆ°Æ¡ng": 2599,
      "Ġkhen": 2600,
      "Ġal": 2601,
      "NT": 2602,
      "Ã¹m": 2603,
      "ĠnhÃ¡nh": 2604,
      "ĠTHPT": 2605,
      "ĠlÃłnh": 2606,
      "Ġxáº¿": 2607,
      "ĠTÄ©nh": 2608,
      "Phone": 2609,
      "ĠLao": 2610,
      "Ġá»ĳng": 2611,
      "Ġchá»ĳi": 2612,
      "ĠNghÄ©a": 2613,
      "deo": 2614,
      "Tr": 2615,
      "ĠBÃ¡c": 2616,
      "ĠxÃ¢m": 2617,
      "ĠIS": 2618,
      "ick": 2619,
      "Ġgiá»ıi": 2620,
      "Ġkhung": 2621,
      "ĠhÃ¢m": 2622,
      "ĠnÃ©t": 2623,
      "Ġvideo": 2624,
      "ĠCLB": 2625,
      "ĠThÆ¡": 2626,
      "ĠnÃ£o": 2627,
      "eg": 2628,
      "ĠTÃ²a": 2629,
      "Ġhoang": 2630,
      "ĠNgÃ´": 2631,
      "ĠTS": 2632,
      "Ġtang": 2633,
      "ĠCáº§u": 2634,
      "Ġmáº¡ch": 2635,
      "era": 2636,
      "Ġtá»ıa": 2637,
      "ĠÄĲT": 2638,
      "ĠkhÃ³c": 2639,
      "ĠPhilipp": 2640,
      "ĠMáº¹": 2641,
      "ĠxÃ³m": 2642,
      "han": 2643,
      "ĠHÃ¬nh": 2644,
      "ĠÄĲÆ°á»Ŀng": 2645,
      "áº¥c": 2646,
      "Ġ2008": 2647,
      "Ġtá»Ľ": 2648,
      "Ġ90": 2649,
      "Ġpháº¥n": 2650,
      "ĠlÃ£m": 2651,
      "alia": 2652,
      "ĠWorld": 2653,
      "ĠvÃŃ": 2654,
      "da": 2655,
      "ĠSp": 2656,
      "ĠchÃ³": 2657,
      "hn": 2658,
      "ĠTÃłu": 2659,
      "ĠLeague": 2660,
      "ĠtÆ°á»Ŀng": 2661,
      "Ġcáº£n": 2662,
      "iz": 2663,
      "Ġhá»Ļp": 2664,
      "ĠbÃ³": 2665,
      "ĠHÆ¡n": 2666,
      "Ġweb": 2667,
      "Ġxinh": 2668,
      "Ġhá»ıng": 2669,
      ");": 2670,
      "Ġngon": 2671,
      "Ġthang": 2672,
      "ĠPháº£i": 2673,
      "ĠCan": 2674,
      "24": 2675,
      "how": 2676,
      "ĠAnd": 2677,
      "áº«y": 2678,
      "ĠSing": 2679,
      "Ġhuá»ĳng": 2680,
      "2013": 2681,
      "ax": 2682,
      "TVT": 2683,
      "ĠkÃ¬": 2684,
      "Ġtáº£": 2685,
      "aysia": 2686,
      "ork": 2687,
      "ĠHá»įc": 2688,
      "Ġthá»Ŀ": 2689,
      "Ġthá»Ł": 2690,
      "EAN": 2691,
      "Ġ*": 2692,
      "ĠTNH": 2693,
      "Ġhá»©a": 2694,
      "ĠÄĳá»ģn": 2695,
      "ta": 2696,
      "Ġbáº¿n": 2697,
      "ĠNÃ³i": 2698,
      "ĠCÄĥn": 2699,
      "ĠCl": 2700,
      "ĠTNHH": 2701,
      "Ġrá»§i": 2702,
      "ĠdÃ¡m": 2703,
      "ĠLá»ħ": 2704,
      "ĠGiá»Ŀ": 2705,
      "ĠphÃ¡o": 2706,
      "Ġdiá»ĩt": 2707,
      "ge": 2708,
      "ĠÄĳÃ¡o": 2709,
      "Ġvá»Ŀi": 2710,
      "nÄĥm": 2711,
      "ĠtÃ¹y": 2712,
      "15": 2713,
      "Ġcháº½": 2714,
      "ĠÄĲá»ģ": 2715,
      "ĠHÃ´m": 2716,
      "ĠtrÃłn": 2717,
      "ĠÄĳá»ĳt": 2718,
      "ĠnhÆ°á»£ng": 2719,
      "ĠSu": 2720,
      "ĠiPhone": 2721,
      "ĠkhÃ´": 2722,
      "ĠhÆ°": 2723,
      "Ġhiáº¿m": 2724,
      "ĠÄĳá»©c": 2725,
      "Ãģ": 2726,
      "ĠMalaysia": 2727,
      "Ġhá»ĵng": 2728,
      "ĠchÄĥn": 2729,
      "Ġtiáº¿c": 2730,
      "Ġsá»ĳt": 2731,
      "ĠAm": 2732,
      "ĠngoÃ¡i": 2733,
      "ĠTiáº¿p": 2734,
      "Ġtá»ķn": 2735,
      "ashi": 2736,
      "á»¥t": 2737,
      "ĠPhilippines": 2738,
      "ĠASEAN": 2739,
      "Ġsa": 2740,
      "ico": 2741,
      "ĠBáº±ng": 2742,
      "ĠReal": 2743,
      "ĠcÆ¡m": 2744,
      "Ġ+": 2745,
      "ĠtáºŃt": 2746,
      "ĠnhÅ©ng": 2747,
      "uch": 2748,
      "Ġngá»įt": 2749,
      "ĠAs": 2750,
      "á»ıng": 2751,
      "ĠCity": 2752,
      "ep": 2753,
      "500": 2754,
      "ĠCN": 2755,
      "21": 2756,
      "Ġhiáº¿n": 2757,
      "ĠÄĲa": 2758,
      "ĠÄĲá»Ĺ": 2759,
      "Ġ>": 2760,
      "Ġcá»Ŀ": 2761,
      "ĠÄĳai": 2762,
      "á»©a": 2763,
      "25": 2764,
      "ĠHar": 2765,
      "2018": 2766,
      "Ġhá»ıa": 2767,
      "Ġsu": 2768,
      "aw": 2769,
      "ĠVI": 2770,
      "ĠThá»ķ": 2771,
      "rid": 2772,
      "ame": 2773,
      "Ġtáº¯t": 2774,
      "ĠlÃłn": 2775,
      "ĠÄĳá»ĵn": 2776,
      "ĠÃĲá»©c": 2777,
      "ĠApp": 2778,
      "ĠTáº¥n": 2779,
      "Ġráº»": 2780,
      "ĠtÃºc": 2781,
      "45": 2782,
      "ĠthÆ°á»£ng": 2783,
      "Ġchá»ĳt": 2784,
      "und": 2785,
      "Ġvinh": 2786,
      "Ġpháº«u": 2787,
      "istan": 2788,
      "ĠkÃŃn": 2789,
      "ĠPhá»¥": 2790,
      "Ġ45": 2791,
      "ĠLai": 2792,
      "km": 2793,
      "ĠlÃŃnh": 2794,
      "ĠÄĲinh": 2795,
      "á»ĭa": 2796,
      "ĠMad": 2797,
      "ĠkiÃªn": 2798,
      "CP": 2799,
      "Ġcá»Ļt": 2800,
      "ĠHáºŃu": 2801,
      "........": 2802,
      "ĠNá»¯": 2803,
      "apore": 2804,
      "Ġcá»©ng": 2805,
      "ĠGTVT": 2806,
      "ĠÄĳiá»ĥn": 2807,
      "ĠxÆ°a": 2808,
      "ĠÃĿ": 2809,
      "ĠgiáºŃt": 2810,
      "ĠmÅ©i": 2811,
      "sea": 2812,
      "Ã½t": 2813,
      "Ġhá»ĵn": 2814,
      "ĠSong": 2815,
      "Ġtrá»¥c": 2816,
      "Ġbá»¥ng": 2817,
      "ĠthÃ¡o": 2818,
      "Ġtao": 2819,
      "ĠdÃ¢m": 2820,
      "Ġtreo": 2821,
      "ĠdÃły": 2822,
      "ip": 2823,
      "Ġga": 2824,
      "ĠMá»Ľi": 2825,
      "ĠDoanh": 2826,
      "Ġnon": 2827,
      "á»Ľp": 2828,
      "ier": 2829,
      "ĠTÃ¹ng": 2830,
      "ĠHáº¡": 2831,
      "ĠQuá»¹": 2832,
      "áº¯k": 2833,
      "ca": 2834,
      "ĠÄĲiá»ĥm": 2835,
      "ĠTháº£o": 2836,
      "60": 2837,
      "CS": 2838,
      "Ġnháº¯n": 2839,
      "Ġngá»¥": 2840,
      "ĠÄĳáºŃu": 2841,
      "Ġha": 2842,
      "ĠlÆ°ng": 2843,
      "ass": 2844,
      "ĠÄĲá»«ng": 2845,
      "ĠLá»±c": 2846,
      "ĠmÃ¹i": 2847,
      "ĠthÃ©p": 2848,
      "ern": 2849,
      "ĠlÃ´": 2850,
      "ĠOb": 2851,
      "ĠBÃłi": 2852,
      "ĠcÃ£i": 2853,
      "ĠMá»įi": 2854,
      "ĠrÃło": 2855,
      "esia": 2856,
      "á»¥i": 2857,
      "ĠHuá»³nh": 2858,
      "ind": 2859,
      "ĠNai": 2860,
      "Ġgiáº¥u": 2861,
      "ĠLoan": 2862,
      "Ġkhiáº¿u": 2863,
      "ĠtÃłng": 2864,
      "Ġláº§m": 2865,
      "ĠChu": 2866,
      "ĠAF": 2867,
      "ĠCamp": 2868,
      "ĠSingapore": 2869,
      "ĠhoÃ¡": 2870,
      "ĠMáº¡nh": 2871,
      "ĠTA": 2872,
      "Ġ2020": 2873,
      "ĠQuá»³nh": 2874,
      "xi": 2875,
      "uk": 2876,
      "ĠHoÃłn": 2877,
      "mar": 2878,
      "ĠÄĳiá»ĩu": 2879,
      "ĠNhÄ©": 2880,
      "Ġbáº¡ch": 2881,
      "ĠÄĲáº·ng": 2882,
      "ames": 2883,
      "ĠmÃ¡t": 2884,
      "ĠSan": 2885,
      "ĠEU": 2886,
      "sk": 2887,
      "apos": 2888,
      "ĠÄĲÃ£": 2889,
      "ĠTá»īnh": 2890,
      "ĠThá»į": 2891,
      "ĠÃ´m": 2892,
      "KS": 2893,
      "na": 2894,
      "ĠThá»¥y": 2895,
      "ĠrÃł": 2896,
      "ĠthÄĥng": 2897,
      "Ġhuynh": 2898,
      "ĠchÃºc": 2899,
      "ĠSo": 2900,
      "'.": 2901,
      "Ġháº§m": 2902,
      "TS": 2903,
      "ĠFacebook": 2904,
      "ĠThá»ĳng": 2905,
      "Ġof": 2906,
      "ĠInternet": 2907,
      "ĠTin": 2908,
      "40": 2909,
      "donesia": 2910,
      "uro": 2911,
      "ĠphÃº": 2912,
      "ĠLÆ°u": 2913,
      "Ã©n": 2914,
      "ĠsÃ³t": 2915,
      "Ġthan": 2916,
      "ĠAb": 2917,
      "Ġtháº±ng": 2918,
      "ĠKhoáº£n": 2919,
      "ĠJohn": 2920,
      "elsea": 2921,
      "Ġláº·ng": 2922,
      "ĠCty": 2923,
      "Ġcanh": 2924,
      "ĠlÃ£ng": 2925,
      "Ġmá»ĩnh": 2926,
      "£n": 2927,
      "Ġphá»ıng": 2928,
      "Ġthe": 2929,
      "ters": 2930,
      "Ġtráº§n": 2931,
      "ĠApple": 2932,
      "Ġche": 2933,
      "ast": 2934,
      "ĠnhÃ£n": 2935,
      "á»ĩt": 2936,
      "HÃł": 2937,
      "Ġmá»±c": 2938,
      "Ġcáº¥t": 2939,
      "ĠPháº§n": 2940,
      "ĠDanh": 2941,
      "ĠxÆ°Æ¡ng": 2942,
      "Ġvá»ı": 2943,
      "bank": 2944,
      "ÃŃa": 2945,
      "ĠThÃ¡ng": 2946,
      "ĠChiáº¿c": 2947,
      "ĠdÆ°á»Ŀng": 2948,
      "Ġchá»«ng": 2949,
      "Ġváº½": 2950,
      "ĠÄĳáº¿": 2951,
      "2011": 2952,
      "ĠAir": 2953,
      "Ġgá»£i": 2954,
      "lo": 2955,
      "ĠniÃªm": 2956,
      "AT": 2957,
      "ĠIndonesia": 2958,
      "ĠcÃ¡t": 2959,
      "ĠChelsea": 2960,
      "ĠKH": 2961,
      "Ġuy": 2962,
      "2012": 2963,
      "Ġtháº£": 2964,
      "Ġsáº¯m": 2965,
      "ail": 2966,
      "Ġclip": 2967,
      "ĠxÃ³a": 2968,
      "Ġviá»ħn": 2969,
      "Ġbá»ĳc": 2970,
      "ĠtiÃªm": 2971,
      "Ġruá»Ļt": 2972,
      "ĠgiÃ¢y": 2973,
      "ĠÃ¡c": 2974,
      "ĠTháºŃt": 2975,
      "áº¹t": 2976,
      "ĠngÆ°á»¡ng": 2977,
      "ĠtÃ¢y": 2978,
      "Ġhá»ĳi": 2979,
      "ĠTruyá»ģn": 2980,
      "ĠNgÃłi": 2981,
      "Ġ!": 2982,
      "ĠsÃºt": 2983,
      "Ġtan": 2984,
      "ĠgÃ£": 2985,
      "á»Ĺng": 2986,
      "ĠChÃ¡nh": 2987,
      "ĠtÃ´ng": 2988,
      "mp": 2989,
      "ĠObama": 2990,
      "ĠUn": 2991,
      "Ġrá»Ńa": 2992,
      "Ã£nh": 2993,
      "ĠCSGT": 2994,
      "ek": 2995,
      "ĠYork": 2996,
      "ĠHáº±ng": 2997,
      "ĠSinh": 2998,
      "ĠTrÃł": 2999,
      "land": 3000,
      "ĠVin": 3001,
      "Ġmáº£nh": 3002,
      "ada": 3003,
      "Ġhá»ķ": 3004,
      "ĠdÆ°á»£c": 3005,
      "Ġbáº¯c": 3006,
      "Ġtá»ĳn": 3007,
      "Ġtrá»©ng": 3008,
      "ĠKhoáº£ng": 3009,
      "ĠXin": 3010,
      "Ġtáº¯m": 3011,
      "Ġnáº¥u": 3012,
      "ĠdÃ¢u": 3013,
      "Ġcá»ķng": 3014,
      "ĠláºŃu": 3015,
      "ĠNháº¥t": 3016,
      "ĠtÃłn": 3017,
      "ĠQuan": 3018,
      "ĠbÃª": 3019,
      "ation": 3020,
      "Ġ32": 3021,
      "78": 3022,
      "ite": 3023,
      "tÃ´": 3024,
      "ĠArsen": 3025,
      "Ġquang": 3026,
      "ĠThÄĥng": 3027,
      "Ġâ": 3028,
      "ĠDi": 3029,
      "ĠBV": 3030,
      "Ġlang": 3031,
      "rael": 3032,
      "Ġlá»£n": 3033,
      "ĠÄĳiá»ĩp": 3034,
      "ach": 3035,
      "Ġcáº¯p": 3036,
      "ĠBra": 3037,
      "ĠsÄĥn": 3038,
      "ĠTu": 3039,
      "ĠtrÆ°a": 3040,
      "Ġkhoe": 3041,
      "line": 3042,
      "ĠQuÃ½": 3043,
      "ĠMi": 3044,
      "Ġxá»©ng": 3045,
      "Ġ>>": 3046,
      "ĠTÃŃnh": 3047,
      "ĠCuá»ĳi": 3048,
      "2010": 3049,
      "ĠHÃłnh": 3050,
      "Ġtráº§m": 3051,
      "ĠHá»ĩ": 3052,
      "ĠTuyÃªn": 3053,
      "ood": 3054,
      "Ġmá»ı": 3055,
      "Ġbia": 3056,
      "ĠMos": 3057,
      "Ġchá»§ng": 3058,
      "ĠÄĳáº¡p": 3059,
      "ĠRo": 3060,
      "Ġmá»ĩt": 3061,
      "Ġ33": 3062,
      "ĠtrÃ´i": 3063,
      "Ġbá»Ļt": 3064,
      "uchia": 3065,
      "tin": 3066,
      "ĠIsrael": 3067,
      "ĠtuÃ¢n": 3068,
      "ĠHoÃłi": 3069,
      "Ġdá»įc": 3070,
      "ĠCol": 3071,
      "ĠphÃ¡i": 3072,
      "ĠTAND": 3073,
      "ĠXÃ£": 3074,
      "ĠchÃ¬m": 3075,
      "ĠngÃłi": 3076,
      "ĠgiÆ°á»Ŀng": 3077,
      "18": 3078,
      "ĠAle": 3079,
      "Ġ2007": 3080,
      "CB": 3081,
      "Ġváº¯ng": 3082,
      "Ġchuá»Ĺi": 3083,
      "ĠtÃ´m": 3084,
      "Ġhung": 3085,
      "Ġthuáº«n": 3086,
      "ĠgiáºŃn": 3087,
      "ĠCam": 3088,
      "Ġcá»ı": 3089,
      "ĠCr": 3090,
      "ĠBe": 3091,
      "ĠPl": 3092,
      "ini": 3093,
      "ĠtrÃ²n": 3094,
      "ĠTháºŃm": 3095,
      "ĠMÃ´i": 3096,
      "ĠchÃ¹a": 3097,
      "Ġbáº¿p": 3098,
      "Ġháº£": 3099,
      "ĠcÆ°Æ¡ng": 3100,
      "Iá»": 3101,
      "ash": 3102,
      "ĠRáº¥t": 3103,
      "Ġngáº¡c": 3104,
      "ĠGiÃª": 3105,
      "ĠGu": 3106,
      "ĠmÃ³c": 3107,
      "ĠKiÃªn": 3108,
      "ĠRá»ĵi": 3109,
      "lÆ°á»£ng": 3110,
      "enn": 3111,
      "Ã¹n": 3112,
      "ĠsÃ´i": 3113,
      "Ġdinh": 3114,
      "ĠDiá»ħn": 3115,
      "Ġu": 3116,
      "Ã¬a": 3117,
      "ĠNhÃ¬n": 3118,
      "Ġ196": 3119,
      "Ġláº¡m": 3120,
      "ĠxuÃ¢n": 3121,
      "Ġlá»ĩch": 3122,
      "ĠvÃ¡y": 3123,
      "ĠgiÃ¡p": 3124,
      "Ġnhi": 3125,
      "35": 3126,
      "ĠnÃ©m": 3127,
      "uters": 3128,
      "ĠCampuchia": 3129,
      "XVN": 3130,
      "end": 3131,
      "Ġháº£o": 3132,
      "SC": 3133,
      "Ġnáº¡i": 3134,
      "ĠLá»£i": 3135,
      "ĠTim": 3136,
      "iss": 3137,
      "Ġtrá»ĳng": 3138,
      "ate": 3139,
      "ĠIt": 3140,
      "II": 3141,
      "ĠNG": 3142,
      "ustr": 3143,
      "ĠDav": 3144,
      "ĠNguá»ĵn": 3145,
      "Ġcá»ĳt": 3146,
      "ĠTo": 3147,
      "ĠTá»ĳi": 3148,
      "ngton": 3149,
      "17": 3150,
      "ĠbÃ¡m": 3151,
      "Ġlá»ĵ": 3152,
      "Æ°á»£n": 3153,
      "zil": 3154,
      "Ġxáº£": 3155,
      "ĠviÃªm": 3156,
      "Ġ37": 3157,
      "ert": 3158,
      "ĠdÃłn": 3159,
      "Ġráº¯n": 3160,
      "Ġgá»įn": 3161,
      "ashington": 3162,
      "ĠChung": 3163,
      "cel": 3164,
      "ĠXe": 3165,
      "ĠhÃłm": 3166,
      "Ġ38": 3167,
      "ĠArsenal": 3168,
      "ĠPhÆ°á»£ng": 3169,
      "Ġ400": 3170,
      "Ġshow": 3171,
      "ham": 3172,
      "ĠLÄĲ": 3173,
      "ester": 3174,
      "ara": 3175,
      "mart": 3176,
      "ĠtÃ¢n": 3177,
      "ĠTR": 3178,
      "ĠtÃ¡ch": 3179,
      "ĠTam": 3180,
      "ĠWashington": 3181,
      "ĠCÃ¢u": 3182,
      "ĠGr": 3183,
      "16": 3184,
      "ya": 3185,
      "Ġtiá»ĩc": 3186,
      "Ġcá»¡": 3187,
      "Ġtáº£ng": 3188,
      "ĠEd": 3189,
      "ĠReuters": 3190,
      "ĠSer": 3191,
      "ĠRiÃªng": 3192,
      "Ġmiáº¿ng": 3193,
      "Ġfan": 3194,
      "ĠTÃº": 3195,
      "ĠPH": 3196,
      "Ġkhá»ķng": 3197,
      "CT": 3198,
      "Ġlá»įc": 3199,
      "Ġthiá»ĩp": 3200,
      "Ġven": 3201,
      "phone": 3202,
      "ĠBá»ĳ": 3203,
      "Ã¹y": 3204,
      "ĠNews": 3205,
      "ĠDe": 3206,
      "ĠÄĳáºŃm": 3207,
      "Ġtrá»«ng": 3208,
      "ht": 3209,
      "ĠÄĳáº¯t": 3210,
      "ĠvÄ©": 3211,
      "ĠVietnam": 3212,
      "ĠsÃ¡u": 3213,
      "ĠChÆ°a": 3214,
      "Ġgiáº¥c": 3215,
      "ĠNÄĲ": 3216,
      "ĠMá»¥c": 3217,
      "ĠNghi": 3218,
      "Ġngá»±c": 3219,
      "ĠmÃ©t": 3220,
      "utin": 3221,
      "gi": 3222,
      "ĠFran": 3223,
      "Ġngá»±a": 3224,
      "±ng": 3225,
      "Ġchim": 3226,
      "Ġháº±ng": 3227,
      "ĠÃļ": 3228,
      "Ġmá»ıi": 3229,
      "Ġyáº¿t": 3230,
      "ĠHáº¯n": 3231,
      "ĠPark": 3232,
      "ĠHuyá»ģn": 3233,
      "Ġnghiá»ĩn": 3234,
      "ice": 3235,
      "po": 3236,
      "ĠrÄĥng": 3237,
      "ĠlÃŃ": 3238,
      "Ġmá»ķ": 3239,
      "ĠgiÃły": 3240,
      "ĠtÄ©nh": 3241,
      "ĠÄĲB": 3242,
      "Ġsay": 3243,
      "ĠÄĲÃºng": 3244,
      "ona": 3245,
      "raq": 3246,
      "ĠBá»ĭ": 3247,
      "ĠÄĲÆ¡n": 3248,
      "ĠLÃ£nh": 3249,
      "Æ°Æ¡n": 3250,
      "ĠHiáº¿u": 3251,
      "Ġ150": 3252,
      "ĠdÃŃnh": 3253,
      "ĠÄĳÃ³i": 3254,
      "ĠkhoÃ¡ng": 3255,
      "ĠCá»©": 3256,
      "14": 3257,
      "ĠRonald": 3258,
      "ĠAng": 3259,
      "ley": 3260,
      "ĠvÆ°á»Ľng": 3261,
      "ĠThÃºy": 3262,
      "nd": 3263,
      "ĠMo": 3264,
      "ĠthÆ°a": 3265,
      "ĠPet": 3266,
      "Ġcu": 3267,
      "Ġtriá»ĩt": 3268,
      "ĠÄĳá»Ĺ": 3269,
      "ĠlÃ²": 3270,
      "ĠCo": 3271,
      "ĠCháº³ng": 3272,
      "Ġbá»ģ": 3273,
      "ĠPutin": 3274,
      "ĠMadrid": 3275,
      "ĠMa": 3276,
      "ĠTiá»ĥu": 3277,
      "Ġ2006": 3278,
      "Ġthoáº£i": 3279,
      "ĠÄĳá»±ng": 3280,
      "Ġbá»Ľt": 3281,
      "ĠIraq": 3282,
      "Ġngá»įn": 3283,
      "Ġáº£o": 3284,
      "Ġ34": 3285,
      "ug": 3286,
      "ĠÄĲÄĥng": 3287,
      "ĠchÃŃn": 3288,
      "ĠRob": 3289,
      "ĠGal": 3290,
      "ĠthÆ°á»Ľc": 3291,
      "ĠBÃ¢y": 3292,
      "Æ¡m": 3293,
      "iá»ħu": 3294,
      "ĠthÃ¹ng": 3295,
      "ĠHiá»ģn": 3296,
      "ĠtÃ¡o": 3297,
      "EC": 3298,
      "Ġngá»«a": 3299,
      "ĠChuyá»ĩn": 3300,
      "Ġlá»Ł": 3301,
      "ĠkhuyÃªn": 3302,
      "ĠÄĲá»": 3303,
      "ĠCa": 3304,
      "orn": 3305,
      "Ġgame": 3306,
      "ĠLáº§n": 3307,
      "ĠThÆ°": 3308,
      "90": 3309,
      "ĠsÃ¡nh": 3310,
      "ĠAustr": 3311,
      "ĠTrá»ĭ": 3312,
      "ĠTrá»Ŀi": 3313,
      "ĠTrÃ¡i": 3314,
      "ĠGáº§n": 3315,
      "ĠNhÃ³m": 3316,
      "ĠLiv": 3317,
      "ĠTrinh": 3318,
      "ĠTÄĥng": 3319,
      "ĠlÃ£o": 3320,
      "ĠÄĲáº¥t": 3321,
      "Ġxáº¡": 3322,
      "gle": 3323,
      "ĠCai": 3324,
      "ĠThá»ĥ": 3325,
      "Ġmuá»ĳi": 3326,
      "lymp": 3327,
      "ĠNÆ°á»Ľc": 3328,
      "ID": 3329,
      "ĠTÃªn": 3330,
      "ver": 3331,
      "70": 3332,
      "Ġkg": 3333,
      "sung": 3334,
      "ĠÄĲi": 3335,
      "ĠvÆ°Æ¡ng": 3336,
      "ĠBrazil": 3337,
      "ĠtrÃł": 3338,
      "IV": 3339,
      "áº«m": 3340,
      "ani": 3341,
      "ĠEl": 3342,
      "IA": 3343,
      "ĠThiáº¿u": 3344,
      "ero": 3345,
      "ĠSc": 3346,
      "ĠÃ¡m": 3347,
      "Ġchuyá»ģn": 3348,
      "ĠÄĳiÃªn": 3349,
      "ĠDung": 3350,
      "FF": 3351,
      "ĠÄĳÃł": 3352,
      "ĠOlymp": 3353,
      "ĠAd": 3354,
      "Ġmá»ĳc": 3355,
      "ĠbÃ¹ng": 3356,
      "lin": 3357,
      "ĠbÆ¡i": 3358,
      "ĠGoo": 3359,
      "13": 3360,
      "Ġcáº©n": 3361,
      "Ġtáº¿t": 3362,
      "TN": 3363,
      "ĠNháºŃn": 3364,
      "ĠduyÃªn": 3365,
      "ĠNghe": 3366,
      "ĠChá»©ng": 3367,
      "BC": 3368,
      "ĠbuÃ½t": 3369,
      "80": 3370,
      "Ġáº©m": 3371,
      "ĠâĻ": 3372,
      "ĠBÄĲ": 3373,
      "ĠThi": 3374,
      "ĠtÃŃ": 3375,
      "tor": 3376,
      "ĠvÃµ": 3377,
      "ft": 3378,
      "Ġco": 3379,
      "ĠmÃ¢y": 3380,
      "Ġleo": 3381,
      "ĠkhÃ¡t": 3382,
      "ĠBáº¿n": 3383,
      "ĠMil": 3384,
      "ĠQU": 3385,
      "Ġcamera": 3386,
      "ho": 3387,
      "ĠTrá»ĭnh": 3388,
      "ĠSamsung": 3389,
      "ĠhÆ°u": 3390,
      "ĠdÃ²": 3391,
      "ĠTrao": 3392,
      "Ġkhuyáº¿t": 3393,
      "ĠbÃ¡": 3394,
      "Æ°á»¡i": 3395,
      "Nh": 3396,
      "Ġhoan": 3397,
      "inho": 3398,
      "Ġdáº¯t": 3399,
      "amin": 3400,
      "ĠMau": 3401,
      "Ġlá»įt": 3402,
      "ĠAustralia": 3403,
      "Ġcá»¥m": 3404,
      "Ġmáº¡o": 3405,
      "ĠNgÃ£i": 3406,
      "ĠBÆ°á»Ľc": 3407,
      "ĠThay": 3408,
      "OS": 3409,
      "ĠCha": 3410,
      "ions": 3411,
      "ĠmÃ£n": 3412,
      "ĠRonaldo": 3413,
      "ĠthÃ³i": 3414,
      "ti": 3415,
      "ĠJu": 3416,
      "ĠTá»±": 3417,
      "ĠBáº¥t": 3418,
      "ĠGoogle": 3419,
      "ile": 3420,
      "ĠXem": 3421,
      "ĠÄĲá»Ļng": 3422,
      "ĠÄĳÄ©a": 3423,
      "ĠcÆ°á»¡ng": 3424,
      "ĠTham": 3425,
      "Ġngá»Ļ": 3426,
      "Ġthá»£": 3427,
      "ĠmÃ¢u": 3428,
      "bia": 3429,
      "ĠHÄĲND": 3430,
      "ĠmÃ¹": 3431,
      "ĠNhi": 3432,
      "ĠHáº¡nh": 3433,
      "ĠbáºŃn": 3434,
      "TM": 3435,
      "áº±n": 3436,
      "Ġtá»§": 3437,
      "ĠMon": 3438,
      "OV": 3439,
      "ĠAP": 3440,
      "ĠbÃ©o": 3441,
      "Ġcá»ĳng": 3442,
      "ĠÄĳá»¥": 3443,
      "ĠMich": 3444,
      "ĠDonald": 3445,
      "ke": 3446,
      "ĠTiáº¿ng": 3447,
      "Ġngáº¡ch": 3448,
      "Ġtaxi": 3449,
      "Ġnhá»ĭp": 3450,
      "ĠkhÃ¢u": 3451,
      "Ġbá»ıng": 3452,
      "Ġvá»Ļi": 3453,
      "iet": 3454,
      "ĠVid": 3455,
      "ary": 3456,
      "ĠÄĳáº»": 3457,
      "Ġnhá»±a": 3458,
      "eng": 3459,
      "Ġkhuáº©n": 3460,
      "lor": 3461,
      "Ġmuá»Ļn": 3462,
      "ĠBHXH": 3463,
      "Æ°á»Ľt": 3464,
      "ĠghÃ©p": 3465,
      "Nguá»ĵn": 3466,
      "Ġtha": 3467,
      "ĠĠ": 3468,
      "ĠÄĳeo": 3469,
      "ĠÃ´tÃ´": 3470,
      "Ġháº¹p": 3471,
      "ĠRa": 3472,
      "ĠÆ¡i": 3473,
      "ĠÄĲÃ¡ng": 3474,
      "ĠÄĲÃ´": 3475,
      "ĠKiá»ģu": 3476,
      "Ġkhá»ĳng": 3477,
      "áº¹o": 3478,
      "ĠLy": 3479,
      "ĠÄĲá»ĭa": 3480,
      "Ġ02": 3481,
      "ĠthÃ´": 3482,
      "to": 3483,
      "ĠNghiÃªn": 3484,
      "Ġváº£": 3485,
      "Ġtrá»į": 3486,
      "ĠCÃł": 3487,
      "ela": 3488,
      "ĠThiáº¿t": 3489,
      "ĠlÃ´ng": 3490,
      "bum": 3491,
      "ĠBen": 3492,
      "ĠHA": 3493,
      "ĠMÃ£": 3494,
      "ĠmÆ°á»Ŀi": 3495,
      "ĠPal": 3496,
      "ĠnÃºt": 3497,
      "á»ıi": 3498,
      "Ġsá»ĳc": 3499,
      "Ġmáº§m": 3500,
      "ĠquÃ¡i": 3501,
      "27": 3502,
      "ĠthÆ¡m": 3503,
      "ĠBu": 3504,
      "Ġsoáº¡n": 3505,
      "ĠCÃ¡t": 3506,
      "Ġná»ģ": 3507,
      "TÃ´i": 3508,
      "ĠgÃ¡nh": 3509,
      "áº¢": 3510,
      "ĠMay": 3511,
      "ĠLam": 3512,
      "ĠParis": 3513,
      "ĠSáº£n": 3514,
      "Ġbá»¥i": 3515,
      "ĠCal": 3516,
      "ĠÄĳam": 3517,
      "áºł": 3518,
      "ĠMÃ¡y": 3519,
      "la": 3520,
      "AM": 3521,
      "ĠnÃ¡t": 3522,
      "ĠChamp": 3523,
      "tel": 3524,
      "Ġvang": 3525,
      "Ġgan": 3526,
      "Ġdá»įn": 3527,
      "ĠÃģnh": 3528,
      "ĠTrÃŃ": 3529,
      "á»ĳm": 3530,
      "ĠThá»ĭnh": 3531,
      "ĠTN": 3532,
      "ĠTháº¡ch": 3533,
      "Ġim": 3534,
      "Ġchai": 3535,
      "99": 3536,
      "ica": 3537,
      "Ġtiá»ħn": 3538,
      "ĠBáº¡ch": 3539,
      "2009": 3540,
      "Ġbáº£y": 3541,
      "áº¾": 3542,
      "ĠCanada": 3543,
      "ma": 3544,
      "ĠCáºŃp": 3545,
      "Ġ2005": 3546,
      "ĠNÃªn": 3547,
      "ĠâĻª": 3548,
      "ĠMat": 3549,
      "Ġhá»Ĺn": 3550,
      "Ġáº¥p": 3551,
      "ix": 3552,
      "ĠLon": 3553,
      "go": 3554,
      "rus": 3555,
      "ĠThá»«a": 3556,
      "Ġná»Ł": 3557,
      "ÃĶ": 3558,
      "ler": 3559,
      "ĠhÃ²": 3560,
      "ĠChr": 3561,
      "ĠnhÃłng": 3562,
      "ans": 3563,
      "Ġthuáº§n": 3564,
      "ĠBo": 3565,
      "ĠOlympic": 3566,
      "martphone": 3567,
      "ngÃły": 3568,
      "ĠSe": 3569,
      "va": 3570,
      "ĠQL": 3571,
      "Ġnháº§m": 3572,
      "Ġláº¥n": 3573,
      "Ġxoay": 3574,
      "Ġ/": 3575,
      "Ġtruyá»ĩn": 3576,
      "26": 3577,
      "Ġdá»ĳi": 3578,
      "ĠchÃºa": 3579,
      "ĠdÃ¢ng": 3580,
      "Ġráº¡ng": 3581,
      "AS": 3582,
      "ĠHÃ£ng": 3583,
      "ĠWil": 3584,
      "ĠHay": 3585,
      "ĠkhÃ³i": 3586,
      "ĠdÃ£": 3587,
      "ros": 3588,
      "ĠYáº¿n": 3589,
      "ĠMer": 3590,
      "ĠRom": 3591,
      "ĠdáºŃp": 3592,
      "ĠÄĲáº¯k": 3593,
      "ĠCáº©m": 3594,
      "ĠMÃ¬nh": 3595,
      "ĠGS": 3596,
      "Qu": 3597,
      "ĠYo": 3598,
      "ĠDavid": 3599,
      "ĠmÆ°á»£n": 3600,
      "Ġtrá»įn": 3601,
      "ĠAlex": 3602,
      "ace": 3603,
      "Ġláº¥p": 3604,
      "PL": 3605,
      "Ġváº¹n": 3606,
      "ĠvÃ¢y": 3607,
      "ĠbÃ³n": 3608,
      "Le": 3609,
      "ĠNS": 3610,
      "ĠsÆ¡n": 3611,
      "ĠthoÃ¡i": 3612,
      "ĠTá»Ľ": 3613,
      "ĠAFP": 3614,
      "ĠKá»ĥ": 3615,
      "ĠPháºŃt": 3616,
      "ĠrÃ£i": 3617,
      "ĠkhÆ¡i": 3618,
      "ĠVÃŃ": 3619,
      "á»ķng": 3620,
      "Ġcá»§ng": 3621,
      "Ġheo": 3622,
      "Ġnháº«n": 3623,
      "ĠHS": 3624,
      "ĠthÃ¡nh": 3625,
      "Ġdáº¡": 3626,
      "ĠBá»ĵ": 3627,
      "Ġkhá»Ľp": 3628,
      "Ġ55": 3629,
      "Ġchuá»Ļt": 3630,
      "Ġtrá»Ļn": 3631,
      "Ġváº¥t": 3632,
      "ĠthÃ¢m": 3633,
      "ĠLondon": 3634,
      "ose": 3635,
      "ĠchiÃªu": 3636,
      "Ġ2000": 3637,
      "Ġlá»ģ": 3638,
      "ĠvÆ°Æ¡n": 3639,
      "ĠNN": 3640,
      "Ġchua": 3641,
      "ael": 3642,
      "Ġruá»Ļng": 3643,
      "ĠTruy": 3644,
      "ĠVÃłng": 3645,
      "ĠÃ¡i": 3646,
      "Æ¯á»": 3647,
      "ĠChÃ¡u": 3648,
      "QT": 3649,
      "ant": 3650,
      "ĠXÃ´": 3651,
      "ĠTháº¥y": 3652,
      "Ġ195": 3653,
      "ath": 3654,
      "Ġkhá»©": 3655,
      "CH": 3656,
      "pool": 3657,
      "con": 3658,
      "ĠThiá»ĩn": 3659,
      "Ġbi": 3660,
      "ĠrÅ©": 3661,
      "ĠÃļc": 3662,
      "tain": 3663,
      "ĠlÃ´i": 3664,
      "):": 3665,
      "ĠThÃ¹y": 3666,
      "Ġkhoan": 3667,
      "ens": 3668,
      "ĠVideo": 3669,
      "ĠhÃ´i": 3670,
      "ĠChampions": 3671,
      "Ġhá»¥": 3672,
      "Ġtrinh": 3673,
      "ĠSang": 3674,
      "YT": 3675,
      "ĠláºŃt": 3676,
      "Ġ48": 3677,
      "ĠDáº§u": 3678,
      "ĠCháº¯c": 3679,
      "ĠTá»Ń": 3680,
      "Ġváº£i": 3681,
      "Ġtuá»ĩ": 3682,
      "75": 3683,
      "let": 3684,
      "ĠbÃ´ng": 3685,
      "thÃ¡ng": 3686,
      "ĠBTC": 3687,
      "age": 3688,
      "ĠMess": 3689,
      "ĠkhÃ´i": 3690,
      "Ġ600": 3691,
      "28": 3692,
      "GS": 3693,
      "ĠHe": 3694,
      "Ġ39": 3695,
      "ĠkÃŃ": 3696,
      "ĠmÃºa": 3697,
      "Ġá»©c": 3698,
      "Ġsmartphone": 3699,
      "ĠTe": 3700,
      "Ġvá»£t": 3701,
      "Ind": 3702,
      "ĠxÆ°á»Łng": 3703,
      "ĠCáº£m": 3704,
      "ĠVáºŃn": 3705,
      "ola": 3706,
      "Ġ%": 3707,
      "ĠAt": 3708,
      "ĠÄĲiá»ĥn": 3709,
      "ĠAf": 3710,
      "ĠmÆ°Æ¡i": 3711,
      "ĠLáºŃp": 3712,
      "Ġpin": 3713,
      "ĠLH": 3714,
      "ĠgÃ¬n": 3715,
      "29": 3716,
      "Ġcai": 3717,
      "Ġhi": 3718,
      "entina": 3719,
      "ĠNhá»Ŀ": 3720,
      "ĠsáºŃp": 3721,
      "Ġnháº¡y": 3722,
      "erpool": 3723,
      "Ġná»ĵng": 3724,
      "ĠHiá»ĩu": 3725,
      "Ġkáº¹t": 3726,
      "ĠÄĳá»ĩ": 3727,
      "GD": 3728,
      "ĠÄĳÃ¹a": 3729,
      "ĠLiÃªm": 3730,
      "ĠSÃ´ng": 3731,
      "yo": 3732,
      ")-": 3733,
      "ĠNhiá»ĩt": 3734,
      "Ġ43": 3735,
      "ĠchÃªnh": 3736,
      "ĠSch": 3737,
      "MT": 3738,
      "Index": 3739,
      "ĠTháº¡nh": 3740,
      "aul": 3741,
      "Ġngáº¯m": 3742,
      "Ġdá»Ŀi": 3743,
      "ost": 3744,
      "Ġvá»ī": 3745,
      "ei": 3746,
      "ĠHon": 3747,
      "ĠÄĲáº¡o": 3748,
      "Ġ03": 3749,
      "Ġ65": 3750,
      "Ġphe": 3751,
      "Ġngu": 3752,
      "FA": 3753,
      "ĠOn": 3754,
      "DA": 3755,
      "ĠUy": 3756,
      "Ġ75": 3757,
      "ĠquÃ©t": 3758,
      "Ġlá»ıng": 3759,
      "ĠMour": 3760,
      "ĠlÃ¢y": 3761,
      "ĠKr": 3762,
      "ngÆ°á»Ŀi": 3763,
      "ĠngÃµ": 3764,
      "ĠLiverpool": 3765,
      "Ġde": 3766,
      "ĠLá»ĩ": 3767,
      "ĠBer": 3768,
      "43": 3769,
      "Ġbá»įc": 3770,
      "Ġdá»Ļi": 3771,
      "Ġliá»ģu": 3772,
      "Ġnhá»ī": 3773,
      "ĠÃ¢n": 3774,
      "ĠThuáº¿": 3775,
      "ĠMessi": 3776,
      "ĠMc": 3777,
      "ĠVá»ĭ": 3778,
      "Ġvá»Ł": 3779,
      "ĠkiÃªm": 3780,
      "ĠÄĳá»ĵi": 3781,
      "ĠMá»©c": 3782,
      "ĠBÃ¡": 3783,
      "Ġlá»ĵng": 3784,
      "ĠBáº¯t": 3785,
      "ĠEx": 3786,
      "TGT": 3787,
      "Ġxá»ī": 3788,
      "ĠLee": 3789,
      "ATO": 3790,
      "Ġand": 3791,
      "ĠhÃ£i": 3792,
      "ĠPer": 3793,
      "ĠÄĳáº¯p": 3794,
      "Ġlá»Ļn": 3795,
      "ĠchÃ©m": 3796,
      "lad": 3797,
      "Ġsáº¡t": 3798,
      "ĠVÅ©ng": 3799,
      "ĠMC": 3800,
      "ĠIII": 3801,
      "ĠMourinho": 3802,
      "ĠlÃ¹i": 3803,
      "ĠKiáº¿n": 3804,
      "ox": 3805,
      "ĠQuÃ¡": 3806,
      "ĠTráº¯ng": 3807,
      "ĠVáº¥n": 3808,
      "Ġdá»¡": 3809,
      "ba": 3810,
      "ĠchÃ¡n": 3811,
      "Ġquyáº¿n": 3812,
      "Ġngá»£i": 3813,
      "ĠDá»ĭch": 3814,
      "ĠHiáº¿n": 3815,
      "Ãºn": 3816,
      "Ġluá»ĵng": 3817,
      "ĠmÃ¬": 3818,
      "ĠkhoÃ¡c": 3819,
      "exico": 3820,
      "Ġbá»Ĺng": 3821,
      "ĠLáº¡p": 3822,
      "Bank": 3823,
      "Ľn": 3824,
      "ĠArg": 3825,
      "ĠLá»ĭch": 3826,
      "Ġbá»ķng": 3827,
      "Ġrá»¡": 3828,
      "Ġhiáº¿p": 3829,
      "ĠVá»«a": 3830,
      "ĠTÆ°Æ¡ng": 3831,
      "ĠHol": 3832,
      "Ġmáº¡n": 3833,
      "ĠngÃ³n": 3834,
      "Ġalbum": 3835,
      "ino": 3836,
      "Bá»Ļ": 3837,
      "Ġtá»¥ng": 3838,
      "ĠSáº½": 3839,
      "ĠDÆ°á»Ľi": 3840,
      "ĠOs": 3841,
      "axy": 3842,
      "huyá»ĩn": 3843,
      "ĠTriá»ĩu": 3844,
      "ĠBKS": 3845,
      "Ġvá»īa": 3846,
      "ote": 3847,
      "ana": 3848,
      "Ġsá»£i": 3849,
      "ĠThÃ¡p": 3850,
      "ĠQuyá»ģn": 3851,
      "ĠbÃ¡t": 3852,
      "ĠÃ¹n": 3853,
      "ĠMáº«u": 3854,
      "ight": 3855,
      "giá»": 3856,
      "PTNT": 3857,
      "ĠNa": 3858,
      "ĠSá»Ń": 3859,
      "site": 3860,
      "ĠGiá»Ľi": 3861,
      "Ġ05": 3862,
      "ĠTriá»ĥn": 3863,
      "Ġmá»Ŀ": 3864,
      "ĠGalaxy": 3865,
      "ĠBal": 3866,
      "ĠBay": 3867,
      "ien": 3868,
      "xÃ£": 3869,
      "ĠHáº§u": 3870,
      "ĠMexico": 3871,
      "Ġ46": 3872,
      "Ġphiá»ģn": 3873,
      "ĠLib": 3874,
      "ĠcÃ³c": 3875,
      "Ġmá»ıng": 3876,
      "ĠCTC": 3877,
      "__": 3878,
      "Ġmáº¿n": 3879,
      "ĠThÃªm": 3880,
      "ĠchÄĥng": 3881,
      "Ġnáº£y": 3882,
      "ĠHN": 3883,
      "ĠgiÃ¡n": 3884,
      "ited": 3885,
      "ko": 3886,
      "Ġthá»±": 3887,
      "IC": 3888,
      "ĠEr": 3889,
      "ĠVá»": 3890,
      "ĠBarca": 3891,
      "anmar": 3892,
      "ney": 3893,
      "Ġná»¥": 3894,
      "Ġtriá»ģu": 3895,
      "ane": 3896,
      "ĠÄĲÃłm": 3897,
      "Ġmá»ĵ": 3898,
      "ĠTop": 3899,
      "Ġtiá»ĩm": 3900,
      "ĠBÃŃch": 3901,
      "Ġ120": 3902,
      "ĠBang": 3903,
      "įa": 3904,
      "Å©i": 3905,
      "ĠSÆ°": 3906,
      "ĠÃºy": 3907,
      "ĠÄĲÃªm": 3908,
      "ĠxÃ¡ch": 3909,
      "ĠtrÆ°á»£t": 3910,
      "ĠNHNN": 3911,
      "are": 3912,
      "Ġdá»ĳc": 3913,
      "ĠbÃºt": 3914,
      "ĠhoÃ£n": 3915,
      "Ġlá»¥t": 3916,
      "ĠCSÄĲT": 3917,
      "ĠtrÃ¹m": 3918,
      "ĠcáºŃy": 3919,
      "ka": 3920,
      "ĠbÆ¡m": 3921,
      "League": 3922,
      "Ġtháº¯t": 3923,
      "ĠJong": 3924,
      "ĠChar": 3925,
      "Ġáº¡": 3926,
      "ĠVan": 3927,
      "ony": 3928,
      "ĠÆ°a": 3929,
      "Ġhá»Ł": 3930,
      "ĠthÃ¡p": 3931,
      "Ġhoáº¡i": 3932,
      "Ġvu": 3933,
      "100": 3934,
      "ano": 3935,
      "ĠÄĳáº±ng": 3936,
      "quáºŃn": 3937,
      "ĠVFF": 3938,
      "Má»¹": 3939,
      "Ġko": 3940,
      "ĠArgentina": 3941,
      "ĠXuáº¥t": 3942,
      "ĠCáº£ng": 3943,
      "Ġmá»¡": 3944,
      "ĠHÄĲQT": 3945,
      "ED": 3946,
      "ĠHC": 3947,
      "uc": 3948,
      "Ġcáº¯m": 3949,
      "ĠMyanmar": 3950,
      "á»¦": 3951,
      "ĠPC": 3952,
      "ĠXuyÃªn": 3953,
      "old": 3954,
      "ĠsÆ°u": 3955,
      "ĠdÄ©": 3956,
      "AN": 3957,
      "cow": 3958,
      "ĠVÄĲ": 3959,
      "Ġon": 3960,
      "Ġdá»ĵn": 3961,
      "Ġhá»¥t": 3962,
      "300": 3963,
      "ota": 3964,
      "ĠMU": 3965,
      "Ġnháº¯m": 3966,
      "ĠÄĲo": 3967,
      "ĠÄĳuÃ´i": 3968,
      "eria": 3969,
      "ĠFor": 3970,
      "ĠKhÃ¡ch": 3971,
      "celona": 3972,
      "Ġbáº¿": 3973,
      "ĠGames": 3974,
      "ĠMÃły": 3975,
      "GL": 3976,
      "bur": 3977,
      "Ġmáº·n": 3978,
      "Ġeuro": 3979,
      "Æ°á»Łi": 3980,
      "aly": 3981,
      "oc": 3982,
      "ĠJack": 3983,
      "ĠÄĳá»Ľn": 3984,
      "ram": 3985,
      "ĠÄĲáº¡t": 3986,
      "ĠMoscow": 3987,
      "TB": 3988,
      "ond": 3989,
      "Ġ42": 3990,
      "ÃĬ": 3991,
      "47": 3992,
      "ies": 3993,
      "IS": 3994,
      "Ġbáº©n": 3995,
      "ith": 3996,
      "ĠChÃº": 3997,
      "Ġtop": 3998,
      "TX": 3999,
      "eth": 4000,
      "ĠÄĳÃª": 4001,
      "CK": 4002,
      "Ġvoi": 4003,
      "ĠMV": 4004,
      "ĠTao": 4005,
      "á»ĳp": 4006,
      "ĠSal": 4007,
      "ĠTÃŃn": 4008,
      "46": 4009,
      "36": 4010,
      ".\".": 4011,
      "Ġtá»įa": 4012,
      "áº·m": 4013,
      "Æł": 4014,
      "ĠQH": 4015,
      "ĠcÆ°á»Ľc": 4016,
      "ĠchÃ©p": 4017,
      "ĠNATO": 4018,
      "Ġthá»ķi": 4019,
      "ĠSÄ©": 4020,
      "ĠUS": 4021,
      "Theo": 4022,
      "Ġ47": 4023,
      "ĠCom": 4024,
      "Ġ2003": 4025,
      "ĠVá»£": 4026,
      "ĠHIV": 4027,
      "ĠGDP": 4028,
      "Ġhuyá»ģn": 4029,
      "ĠBarcelona": 4030,
      "Ġtá»ĵi": 4031,
      "ĠchÃ´n": 4032,
      "ĠTráº£": 4033,
      "ĠÄĲÃ¡nh": 4034,
      "ĠgÃ£y": 4035,
      "ĠAg": 4036,
      "les": 4037,
      "Ġphu": 4038,
      "ĠPrem": 4039,
      "Ġchinh": 4040,
      "ĠCá»Ń": 4041,
      "ward": 4042,
      "Ġphiáº¿n": 4043,
      "Ġ49": 4044,
      "ĠMÃ¹a": 4045,
      "Ġgom": 4046,
      "áº¤": 4047,
      "Ġgáº¡ch": 4048,
      "ĠÄĳáº§m": 4049,
      "ĠÄĳá»ĳng": 4050,
      "ĠWal": 4051,
      "ĠNhÆ°á»¡ng": 4052,
      "ĠtrÃ¡ng": 4053,
      "á»ĭn": 4054,
      "Ġhiá»ĥn": 4055,
      "Ġá»ĳc": 4056,
      "TTXVN": 4057,
      "ĠkhÃ©o": 4058,
      "ĠlÆ°á»Ŀng": 4059,
      "ĠDai": 4060,
      "Ġrá»±c": 4061,
      "ĠPhÃŃa": 4062,
      "een": 4063,
      "ĠMic": 4064,
      "ĠTá»·": 4065,
      "ike": 4066,
      "Ġ2004": 4067,
      "Viet": 4068,
      "ĠVal": 4069,
      "Ġvirus": 4070,
      "Ġkhoáº£nh": 4071,
      "ĠTháº§y": 4072,
      "ĠPGS": 4073,
      "ĠSeo": 4074,
      "%/": 4075,
      "Ġtháº§m": 4076,
      "ĠND": 4077,
      "Ġráº¯c": 4078,
      "ĠKhai": 4079,
      "Ġkem": 4080,
      "ĠWind": 4081,
      "ĠMac": 4082,
      "Ġ800": 4083,
      "ĠÄĲan": 4084,
      "ĠSiÃªu": 4085,
      "yl": 4086,
      "Ġdá»ĭu": 4087,
      "Ġnhá»Ł": 4088,
      "ows": 4089,
      "ĠHÆ°á»Ľng": 4090,
      "Ġbá»Ļi": 4091,
      "Ġ51": 4092,
      "Ġ44": 4093,
      "Ġmáº£ng": 4094,
      "ĠPro": 4095,
      "OT": 4096,
      "ĠHuá»ĩ": 4097,
      "ott": 4098,
      "ĠTÃ´": 4099,
      "ĠnhÃŃ": 4100,
      "ĠMÃł": 4101,
      "ĠMor": 4102,
      "Ġlong": 4103,
      "ĠgiÃ£n": 4104,
      "ĠTiÃªu": 4105,
      "ĠGeo": 4106,
      "DI": 4107,
      "ĠVH": 4108,
      "ghan": 4109,
      "ĠTráºŃn": 4110,
      "ĠngÃło": 4111,
      "ĠBá»įn": 4112,
      "ĠQÄĲ": 4113,
      "ĠtrÃ¢u": 4114,
      "ĠMin": 4115,
      "Ġhang": 4116,
      "ĠTá»Ŀ": 4117,
      "Ġong": 4118,
      "Ã©c": 4119,
      "ĠbÃ¬": 4120,
      "Trung": 4121,
      "Ġgá»ĳi": 4122,
      "di": 4123,
      "ĠrÃ©t": 4124,
      "Ġvá»Ľ": 4125,
      "ĠCub": 4126,
      "ĠSEA": 4127,
      "ĠTÆ°á»Ŀng": 4128,
      "ĠlÃŃt": 4129,
      "Ġ250": 4130,
      "ĠTuáº§n": 4131,
      "ish": 4132,
      "ĠViÃªn": 4133,
      "ĠÄĳÃłnh": 4134,
      "ĠPak": 4135,
      "Ġdá»Ł": 4136,
      "Ġwebsite": 4137,
      "Ġsá»¥t": 4138,
      "ĠChia": 4139,
      "Ġmá»įc": 4140,
      "ĠghÃ©t": 4141,
      "Ġvit": 4142,
      "ark": 4143,
      "ea": 4144,
      "iá»ģng": 4145,
      "Ġcáº¡n": 4146,
      "ĠÄĳÃ¡y": 4147,
      "ĠTom": 4148,
      "CCC": 4149,
      "ĠEn": 4150,
      "ĠChá»£": 4151,
      "ann": 4152,
      "Ġlá»©a": 4153,
      "ĠcÃºm": 4154,
      "ĠÄĳá»¥ng": 4155,
      "ve": 4156,
      "ĠnÆ°á»Ľng": 4157,
      "QÄĲ": 4158,
      "ĠTHCS": 4159,
      "PC": 4160,
      "ĠSen": 4161,
      "mm": 4162,
      "ĠChuyÃªn": 4163,
      "EO": 4164,
      "ĠAfghan": 4165,
      "ĠÄĲÃ´i": 4166,
      "roid": 4167,
      "ĠCÃ¡": 4168,
      "ĠTV": 4169,
      "Ġvitamin": 4170,
      "gh": 4171,
      "ĠNhÆ¡n": 4172,
      "Ġlá»¡": 4173,
      "Ġsan": 4174,
      "ĠmÃ³ng": 4175,
      "--": 4176,
      "ĠÄĳáº¯c": 4177,
      "ĠlÃ¹ng": 4178,
      "Ġnhan": 4179,
      "ĠhÃ²n": 4180,
      "Ġphá»ķi": 4181,
      "Ġngoan": 4182,
      "ĠthoÃ¡ng": 4183,
      "ĠUnited": 4184,
      "ĠxÃ´": 4185,
      "Ġcháº£": 4186,
      "ĠHonda": 4187,
      "ĠVen": 4188,
      "ĠAfghanistan": 4189,
      "á»Ĳ": 4190,
      "400": 4191,
      "ĠSH": 4192,
      "ena": 4193,
      "38": 4194,
      "ĠNgÃ´i": 4195,
      "Ġhot": 4196,
      "ĠHam": 4197,
      "Ġmanh": 4198,
      "ÃĤ": 4199,
      "ĠsÃ¡p": 4200,
      "ĠcÃ¡p": 4201,
      "ĠrÃ¨n": 4202,
      "ĠTÃ´n": 4203,
      "ĠLáº¡c": 4204,
      "ĠStr": 4205,
      "Ġ)": 4206,
      "QH": 4207,
      "ĠSÃ³c": 4208,
      "me": 4209,
      "ĠTháº§n": 4210,
      "ĠBHYT": 4211,
      "ĠGiá»¯": 4212,
      "ĠSá»¹": 4213,
      "á»ıa": 4214,
      "oft": 4215,
      "khÃ´ng": 4216,
      "ĠngÆ¡i": 4217,
      "Ġháº¡m": 4218,
      "USD": 4219,
      "ĠmÄĥng": 4220,
      "ĠgÃ¡c": 4221,
      "Ġtráº¯c": 4222,
      "erry": 4223,
      "Ġmi": 4224,
      "ĠÄĳá»©t": 4225,
      "Ġnáº¥m": 4226,
      "ĠPremier": 4227,
      "ĠkhÃ´n": 4228,
      "Ġ2001": 4229,
      "79": 4230,
      "ĠCá»Ńa": 4231,
      "ĠlÄĥn": 4232,
      "Ġphun": 4233,
      "ĠmÃ²": 4234,
      "ĠcÃłi": 4235,
      "berg": 4236,
      "tainer": 4237,
      "ĠTráº¡m": 4238,
      "Kh": 4239,
      "ĠTay": 4240,
      "XX": 4241,
      "ĠlÃ¢n": 4242,
      "................": 4243,
      "ĠLáº¡t": 4244,
      "gon": 4245,
      "ĠPhÃ¹ng": 4246,
      "chester": 4247,
      "ĠVÄĲV": 4248,
      "ĠTw": 4249,
      "fi": 4250,
      "rab": 4251,
      "Ġbá»ĥ": 4252,
      "ĠFer": 4253,
      "ĠKá»¹": 4254,
      "TTQ": 4255,
      "Ġcá»±": 4256,
      "DC": 4257,
      "Ġ2002": 4258,
      "Ġ64": 4259,
      "Ġláº·n": 4260,
      "ĠYÃªu": 4261,
      "NÄĲ": 4262,
      "Ġcháº©n": 4263,
      "ĠHAGL": 4264,
      "eal": 4265,
      "ĠPCCC": 4266,
      "ĠWindows": 4267,
      "Ġnháº¡t": 4268,
      "Ġtuyáº¿t": 4269,
      "Ġmá»¥": 4270,
      "ĠmÃ¨o": 4271,
      "ĠTuyáº¿t": 4272,
      "Ġpháº¿": 4273,
      "ĠdÃ¡n": 4274,
      "ĠVic": 4275,
      "Ġ85": 4276,
      "ĠIr": 4277,
      "ĠTuá»ķi": 4278,
      "ĠNhung": 4279,
      "ĠCuba": 4280,
      "ĠMichael": 4281,
      "Ġngá»±": 4282,
      "ĠcÃºng": 4283,
      "Ġtá»±u": 4284,
      "sh": 4285,
      "ĠAndroid": 4286,
      "Ġthoáº£ng": 4287,
      "ĠrÃ²ng": 4288,
      "Ġxao": 4289,
      "Ġ700": 4290,
      "Ġrá»Ļn": 4291,
      "ĠTháº©m": 4292,
      "Ġmáº»": 4293,
      "Ġváº¡n": 4294,
      "ura": 4295,
      "ĠBáº¡c": 4296,
      "33": 4297,
      "ĠQuáº£": 4298,
      "ĠJe": 4299,
      "ĠláºŃn": 4300,
      "Ġtá»ĳng": 4301,
      "ĠPhiÃªn": 4302,
      "Ġ41": 4303,
      "ear": 4304,
      "Ġcay": 4305,
      "otte": 4306,
      "Ġ09": 4307,
      "ĠDuyÃªn": 4308,
      "ĠBÃłn": 4309,
      "ĠVTV": 4310,
      "ĠTráº»": 4311,
      "ĠCung": 4312,
      "Iá»Ĩ": 4313,
      "ĠBá»ī": 4314,
      "ĠJames": 4315,
      "ĠLÄĲLÄĲ": 4316,
      "ĠxÃ´ng": 4317,
      "ins": 4318,
      "Ġláº¯c": 4319,
      "Ġinter": 4320,
      "Ġkhá»ĳn": 4321,
      "ĠdÅ©ng": 4322,
      "ĠOr": 4323,
      "Ġ56": 4324,
      "ĠlÃ¡t": 4325,
      "48": 4326,
      "ĠAngel": 4327,
      "ink": 4328,
      "pr": 4329,
      "ĠPakistan": 4330,
      "Ġgáº¯t": 4331,
      "ĠNhu": 4332,
      "ĠMark": 4333,
      "37": 4334,
      "ĠBS": 4335,
      "kho": 4336,
      "TA": 4337,
      "á»µ": 4338,
      "Ġthá»į": 4339,
      "ee": 4340,
      "Ġká»ģ": 4341,
      "Ġnghá»ĭch": 4342,
      "ĠHoáº¡t": 4343,
      "ĠtÃŃm": 4344,
      "by": 4345,
      "ĠMicros": 4346,
      "Ġ;": 4347,
      "Ġcontainer": 4348,
      "oll": 4349,
      "ĠLáº¡i": 4350,
      "ĠTÃ¬m": 4351,
      "Ġxi": 4352,
      "ĠMáº¥y": 4353,
      "%;": 4354,
      "ĠkhÃ¡i": 4355,
      "ĠTok": 4356,
      "Ġláº·p": 4357,
      "ĠGre": 4358,
      "NA": 4359,
      "Ġinch": 4360,
      "ĠKy": 4361,
      "JC": 4362,
      "DL": 4363,
      "Ġkhiáº¿p": 4364,
      "Ġtáº©y": 4365,
      "Ġháº¡ch": 4366,
      "do": 4367,
      "ĠCÄĲV": 4368,
      "ford": 4369,
      "Ġnáº¿p": 4370,
      "Ġdá»ĩt": 4371,
      "Ġá»ĵn": 4372,
      "Ġbáº¯p": 4373,
      "ĠSÃ¡u": 4374,
      "ĠGeor": 4375,
      "Ġsuá»ĳi": 4376,
      "ĠMicrosoft": 4377,
      "áº»o": 4378,
      "ĠDon": 4379,
      "ĠCá»±u": 4380,
      "Ġá»ĳm": 4381,
      "Ġngá»Ļt": 4382,
      "ĠCáºŃn": 4383,
      "Ġtháº¥u": 4384,
      "ĠToy": 4385,
      "lines": 4386,
      "ĠPháº¡t": 4387,
      "giá»Ŀ": 4388,
      "ĠmÃłng": 4389,
      "mer": 4390,
      "ĠtrÄĥng": 4391,
      "95": 4392,
      "ĠVÃ¢ng": 4393,
      "Ġráº£i": 4394,
      "ĠbÆ°u": 4395,
      "ĠRos": 4396,
      "ĠÃ´n": 4397,
      "Ġj": 4398,
      "Ġhiáº¿u": 4399,
      "ĠKar": 4400,
      "ĠchÃ¢m": 4401,
      "ĠHong": 4402,
      "bo": 4403,
      "ĠBÃ©": 4404,
      "ĠGa": 4405,
      "ĠlÄĥng": 4406,
      "Ġnho": 4407,
      "wood": 4408,
      "Ġgá»¥c": 4409,
      "ĠtÆ°á»Ľc": 4410,
      "ĠnÃ£": 4411,
      "ĠkhÃ©p": 4412,
      "ner": 4413,
      "ĠdÆ°a": 4414,
      "Ġmen": 4415,
      "ush": 4416,
      "ĠKiáº¿m": 4417,
      "ĠKhÃª": 4418,
      "ĠtÃ¡m": 4419,
      "ĠxÆ°ng": 4420,
      "Ġkiá»ģu": 4421,
      "Ġ54": 4422,
      "ĠKon": 4423,
      "ĠgiÃłn": 4424,
      "ĠÄĳá»Ľi": 4425,
      "ĠÄĲÃłn": 4426,
      "Ġtá»±a": 4427,
      "ĠsÃºc": 4428,
      "ĠManchester": 4429,
      "HN": 4430,
      "Ġ63": 4431,
      "ĠkÄ©": 4432,
      "KT": 4433,
      "ĠnháºŃu": 4434,
      "Ġgay": 4435,
      "ĠcÃ´n": 4436,
      "ĠHuyá»ĩn": 4437,
      "55": 4438,
      "ĠBáº£ng": 4439,
      "Ġinternet": 4440,
      "ĠKT": 4441,
      "ĠÄĳoan": 4442,
      "ĠTrÄĥng": 4443,
      "ĠChÃ¢n": 4444,
      "xit": 4445,
      "Ġáº¢": 4446,
      "Ġoan": 4447,
      "ĠMilan": 4448,
      "ĠquÃ£ng": 4449,
      "QG": 4450,
      "Ġkhe": 4451,
      "Ġdáº¡o": 4452,
      "Ġao": 4453,
      "olf": 4454,
      "ĠCháº¥t": 4455,
      "á»ĥn": 4456,
      "ĠCáº¥p": 4457,
      "Ġ2019": 4458,
      "Ġcháº·ng": 4459,
      "ĠGiÃ¡p": 4460,
      "Ġ58": 4461,
      "Ġ52": 4462,
      "ĠCÃ¢y": 4463,
      "ĠCB": 4464,
      "ĠNÃły": 4465,
      "Ġsá»¥p": 4466,
      "ĠxÃ¡": 4467,
      "ĠOnline": 4468,
      "ĠÄĳÃ²n": 4469,
      "ĠHÄĲXX": 4470,
      "Ġrá»ī": 4471,
      "ĠlÆ°á»¡i": 4472,
      "ĠNiÃªn": 4473,
      "Ġ1999": 4474,
      "ĠRobert": 4475,
      "á»§a": 4476,
      "ĠÄĲÆ°a": 4477,
      "31": 4478,
      "Ġhá»ĳ": 4479,
      "ĠBÄĥng": 4480,
      "ĠÄĳá»įng": 4481,
      "ĠMÃ´n": 4482,
      "uz": 4483,
      "Ġcuá»ĵng": 4484,
      "Ġmá»Ļng": 4485,
      "ĠhoÃłnh": 4486,
      "ĠBOT": 4487,
      "ĠxÃŃ": 4488,
      "Ġráº½": 4489,
      "ĠGl": 4490,
      "Ġman": 4491,
      "ĠHD": 4492,
      "ĠthiÃªu": 4493,
      "ĠSk": 4494,
      "ĠChrist": 4495,
      "ovic": 4496,
      "ari": 4497,
      "Ġtrá»Ļi": 4498,
      "ĠhÃ¡i": 4499,
      "Ġtáº§n": 4500,
      "ĠHiá»ĥn": 4501,
      "ĠPhá»§": 4502,
      "ĠMas": 4503,
      "ĠnghiÃªng": 4504,
      "ĠAirlines": 4505,
      "ĠgÅ©i": 4506,
      "UY": 4507,
      "Æ°Æ¡m": 4508,
      "Ġgen": 4509,
      "ĠSun": 4510,
      "ĠthÃ¡m": 4511,
      "Ġcá»Łi": 4512,
      "Ġká»ī": 4513,
      "34": 4514,
      "ĠViáº¿t": 4515,
      "Ġcong": 4516,
      "ĠdÃ£y": 4517,
      "Ġrá»ĥ": 4518,
      "Ġli": 4519,
      "ĠhoÃłi": 4520,
      "ĠÄĲiá»ģn": 4521,
      "BÃ¬nh": 4522,
      "áº¬": 4523,
      "ĠlÆ°á»¡ng": 4524,
      "ĠtÃ³m": 4525,
      "ChÃºng": 4526,
      "ĠxÃŃch": 4527,
      "ĠhÃł": 4528,
      "ĠTá»Ľi": 4529,
      "Ġráº¡p": 4530,
      "ĠThÃ¡nh": 4531,
      "oney": 4532,
      "39": 4533,
      "Ġ1990": 4534,
      "ake": 4535,
      "Ġtrá»ħ": 4536,
      "ĠVÃĢ": 4537,
      "88": 4538,
      "tá»«": 4539,
      "outh": 4540,
      "ĠSÃ¢n": 4541,
      "ĠÄĳuá»ĳi": 4542,
      "ĠKháº¯c": 4543,
      "ĠPhÃ¢n": 4544,
      "ĠVua": 4545,
      "ĠBlack": 4546,
      "Ġrá»ĵng": 4547,
      "Ġmá»ī": 4548,
      "ĠVKS": 4549,
      "ĠQuáºŃn": 4550,
      "Ġtháº¯n": 4551,
      "ĠÄĳáº¿m": 4552,
      "edia": 4553,
      "ive": 4554,
      "att": 4555,
      "Ġdáº¡i": 4556,
      "ĠTTXVN": 4557,
      "Ġlá»Ļi": 4558,
      "ĠBÃ¡i": 4559,
      "ĠToyota": 4560,
      "Ġsex": 4561,
      "ĠchÃª": 4562,
      "ĠchÃ¨": 4563,
      "Ġcá»ĳc": 4564,
      "roup": 4565,
      "ĠDaily": 4566,
      "Ġ95": 4567,
      "ĠLáº¯k": 4568,
      "ĠEuro": 4569,
      "Ġcáº¯n": 4570,
      "Ġkiá»ĩt": 4571,
      "Ġ04": 4572,
      "ĠVáº«n": 4573,
      "ĠPhim": 4574,
      "ĠNor": 4575,
      "ĠTokyo": 4576,
      "ĠÄĳÃºc": 4577,
      "ĠId": 4578,
      "ĠÄĳÃ¡n": 4579,
      "ĠLáº¡ng": 4580,
      "ust": 4581,
      "ĠnhÃ¬": 4582,
      "ÃĶNG": 4583,
      "biz": 4584,
      "ĠTho": 4585,
      "49": 4586,
      "ĠlÆ¡": 4587,
      "ĠdÃ´ng": 4588,
      "Ġranh": 4589,
      "ĠtÃª": 4590,
      "Ġghen": 4591,
      "Ġtháº¯c": 4592,
      "ĠlÅ©y": 4593,
      "ĠNo": 4594,
      "theo": 4595,
      "iano": 4596,
      "ĠkhoÄĥn": 4597,
      "ĠCor": 4598,
      "ĠngÃ´": 4599,
      "ĠLiÃªu": 4600,
      "ĠNÆ¡i": 4601,
      "ĠHer": 4602,
      "CÄĲ": 4603,
      "ĠMuá»ĳn": 4604,
      "Ġdáº£i": 4605,
      "ĠTrÃ¡ch": 4606,
      "Nam": 4607,
      "Ġ06": 4608,
      "05": 4609,
      "ĠsÆ°Æ¡ng": 4610,
      "Ġkiá»ģm": 4611,
      "ĠMod": 4612,
      "Ġ57": 4613,
      "ide": 4614,
      "ĠtrÃ¢n": 4615,
      "ĠToÃ¡n": 4616,
      "eet": 4617,
      "ĠSw": 4618,
      "ĠTimes": 4619,
      "ial": 4620,
      "oth": 4621,
      "ĠLiá»ĩu": 4622,
      "Ġrung": 4623,
      "ova": 4624,
      "ĠPhÃ³ng": 4625,
      "ĠPaul": 4626,
      "ĠlÃµi": 4627,
      "GB": 4628,
      "ĠThÃ¢n": 4629,
      "ĠClin": 4630,
      "á»ĭt": 4631,
      "Ġgiáº¿": 4632,
      "ĠMiss": 4633,
      "Ġ1998": 4634,
      "%)": 4635,
      "32": 4636,
      "row": 4637,
      "car": 4638,
      "ĠGen": 4639,
      "ĠxÃł": 4640,
      "600": 4641,
      "ĠXII": 4642,
      "ĠmÃ¡": 4643,
      "ĠGiá»ĳng": 4644,
      "SG": 4645,
      "ĠBáº£y": 4646,
      "ĠhÆ°á»Ľc": 4647,
      "Ġlui": 4648,
      "65": 4649,
      "ull": 4650,
      "ĠÄĲang": 4651,
      "ĠÃģo": 4652,
      "ĠWilli": 4653,
      "ĠÄĲá»ĵn": 4654,
      "Ġkhoai": 4655,
      "ĠViá»ħn": 4656,
      "cm": 4657,
      "Ġtháº¡ch": 4658,
      "ĠbuÃ´ng": 4659,
      "ĠMTTQ": 4660,
      "ĠKÃ´ng": 4661,
      "Ġná»©t": 4662,
      "ĠháºŃn": 4663,
      "ĠCTCP": 4664,
      "ĠBá»©c": 4665,
      "ĠKong": 4666,
      "ĠANT": 4667,
      "ĠLá»Ŀi": 4668,
      "ĠkhÃ¡nh": 4669,
      "ĠHarry": 4670,
      "ĠÄĳáº¯n": 4671,
      "Ġ67": 4672,
      "ata": 4673,
      "ĠYou": 4674,
      "ĠbÄĥn": 4675,
      "ube": 4676,
      "ella": 4677,
      "ĠkhiÃªu": 4678,
      "ĠKhá»ĳi": 4679,
      "ĠChÃło": 4680,
      "Ġtáº·c": 4681,
      "ĠÃło": 4682,
      "ĠBiáº¿t": 4683,
      "Quáº£ng": 4684,
      "que": 4685,
      "pe": 4686,
      "Ġquyá»ĥn": 4687,
      "ĠCNTT": 4688,
      "ĠCÆ°Æ¡ng": 4689,
      "ĠÄĳáº¡c": 4690,
      "IM": 4691,
      "Ġhiá»ģn": 4692,
      "2008": 4693,
      "oun": 4694,
      "á»¤": 4695,
      "ĠSJC": 4696,
      "ĠKhá»Łi": 4697,
      "ĠStar": 4698,
      "ĠLHQ": 4699,
      "ĠnhÃ¡t": 4700,
      "eld": 4701,
      "Ġnháº·t": 4702,
      "ĠTrÆ°ng": 4703,
      "illa": 4704,
      "Ġtháº¥m": 4705,
      "ĠÃªn": 4706,
      "ren": 4707,
      "ily": 4708,
      "ĠNÄĥng": 4709,
      "Ġdá»«a": 4710,
      "%),": 4711,
      "ĠMá»Ł": 4712,
      "ett": 4713,
      "ĠAN": 4714,
      "Ġ66": 4715,
      "ornia": 4716,
      "Ġbáº¥m": 4717,
      "Ġphanh": 4718,
      "itter": 4719,
      "ĠBayern": 4720,
      "ĠTM": 4721,
      "85": 4722,
      "ĠhÃ©t": 4723,
      "ĠTÃ¡c": 4724,
      "ĠtÃ¹ng": 4725,
      "ĠGiÃ¡ng": 4726,
      "ĠXÃ¡c": 4727,
      "Ġhoáº¡n": 4728,
      "Ġnáº¡p": 4729,
      "my": 4730,
      "ĠLibya": 4731,
      "ĠlÃ¡ng": 4732,
      "ĠchÃ¬a": 4733,
      "ifornia": 4734,
      "Ãį": 4735,
      "ĠDel": 4736,
      "cÃ³": 4737,
      "Ġchá»Ńi": 4738,
      "xy": 4739,
      "ĠngÃ¢m": 4740,
      "ĠItalia": 4741,
      "ania": 4742,
      "ĠPhÃºt": 4743,
      "ĠVá»ĭnh": 4744,
      "ĠJose": 4745,
      "Ġmá»ĵi": 4746,
      "ĠcÃºp": 4747,
      "Ġpr": 4748,
      "ĠCap": 4749,
      "Ġá»Ľt": 4750,
      "Ġsoi": 4751,
      "ech": 4752,
      "CÃ´ng": 4753,
      "á»Ĩ": 4754,
      "ĠKCN": 4755,
      "ĠVÃ¹ng": 4756,
      "ĠQuÃ¡n": 4757,
      "vent": 4758,
      "ock": 4759,
      "Ġchuá»ĳi": 4760,
      "Ġdáº¹p": 4761,
      "Ġná»ĵi": 4762,
      "ĠHTX": 4763,
      "ÄĤ": 4764,
      "ĠClip": 4765,
      "Ġ53": 4766,
      "ĠLoáº¡i": 4767,
      "Ġtour": 4768,
      "ww": 4769,
      "ĠVy": 4770,
      "ĠTrÃ¬nh": 4771,
      "osh": 4772,
      "ĠSai": 4773,
      "ĠmÃ²n": 4774,
      "ron": 4775,
      "ĠXá»Ń": 4776,
      "ĠNgÃłnh": 4777,
      "ĠRam": 4778,
      "ade": 4779,
      "800": 4780,
      "ĠQuáº¿": 4781,
      "Ġhu": 4782,
      "ĠClinton": 4783,
      "ĠCá»ĳ": 4784,
      "Ġvá»Ľt": 4785,
      "ĠIV": 4786,
      "trong": 4787,
      "ĠCalifornia": 4788,
      "ĠSl": 4789,
      "Ġbá»Ļc": 4790,
      "ala": 4791,
      "ĠSi": 4792,
      "ĠsÆ°á»Ľng": 4793,
      "Net": 4794,
      "41": 4795,
      "ĠTy": 4796,
      "ĠNhÃ£": 4797,
      "ĠCá»Ńu": 4798,
      "ĠItaly": 4799,
      "ĠTre": 4800,
      "ĠVictor": 4801,
      "ĠÆ¯": 4802,
      "Ġ59": 4803,
      "ĠVlad": 4804,
      "ĠPan": 4805,
      "oto": 4806,
      "ĠLi": 4807,
      "Ġkáº¹o": 4808,
      "',": 4809,
      "Ġchanh": 4810,
      "ĠvÃ³c": 4811,
      "ĠHCV": 4812,
      "za": 4813,
      "ĠÃįt": 4814,
      "Ġbá»ĵn": 4815,
      "ĠphÆ¡i": 4816,
      "Ġrad": 4817,
      "Ġqui": 4818,
      "ĠVP": 4819,
      "ĠTrÃ¬": 4820,
      "Ġ68": 4821,
      "ĠvÃ£": 4822,
      "ĠUá»·": 4823,
      "ĠWest": 4824,
      "rl": 4825,
      "ny": 4826,
      "Ġgiá»įt": 4827,
      "ational": 4828,
      "Ġkhuy": 4829,
      "ĠHoáº·c": 4830,
      "Ġst": 4831,
      "ĠtÃºng": 4832,
      "ĠvÃłnh": 4833,
      "ĠCT": 4834,
      "ae": 4835,
      "ĠcháºŃt": 4836,
      ".,": 4837,
      "ĠTuyáº¿n": 4838,
      "ĠNáº¡n": 4839,
      "44": 4840,
      "Ġham": 4841,
      "ĠSte": 4842,
      "ĠOanh": 4843,
      "TNO": 4844,
      "ĠbÃłng": 4845,
      "ĠbÃ¹n": 4846,
      "NE": 4847,
      "ĠVOV": 4848,
      "ĠFI": 4849,
      "eon": 4850,
      "per": 4851,
      "ĠRá»ĭa": 4852,
      "ics": 4853,
      "ĠTráº¡ch": 4854,
      "ĠNT": 4855,
      "ĠShi": 4856,
      "ĠvuÃ´ng": 4857,
      "ĠÄĤ": 4858,
      "ĠJon": 4859,
      "Ġmm": 4860,
      "NLÄĲ": 4861,
      "ĠHNX": 4862,
      "ĠSá»©c": 4863,
      "Ġ72": 4864,
      "Ġ99": 4865,
      "ĠrÃ¡p": 4866,
      "ĠxÃ³t": 4867,
      "Ġ00": 4868,
      "ĠKá»·": 4869,
      "ĠMu": 4870,
      "khoáº£ng": 4871,
      "Ġchuá»Ļng": 4872,
      "ĠxÃ´n": 4873,
      "ĠthiÃªng": 4874,
      "ĠTal": 4875,
      "Ġvá»©": 4876,
      "ĠRich": 4877,
      "ĠTI": 4878,
      "sinh": 4879,
      "ĠDiá»ĩu": 4880,
      "Ġbáº«y": 4881,
      "over": 4882,
      "DN": 4883,
      "Ġváº¯c": 4884,
      "ĠAc": 4885,
      "ĠGar": 4886,
      "ĠInd": 4887,
      "ĠMob": 4888,
      "ĠiP": 4889,
      "ĠWe": 4890,
      "Ġvá»ĭt": 4891,
      "Ġgiáº¿ng": 4892,
      "ĠWilliam": 4893,
      "lie": 4894,
      "ĠKáº»": 4895,
      "atar": 4896,
      "ga": 4897,
      "ĠWar": 4898,
      "ĠBi": 4899,
      "ĠMÆ°á»Ŀi": 4900,
      "Ġá»¨": 4901,
      "ĠThÃŃ": 4902,
      "68": 4903,
      "ĠbÃ¡ch": 4904,
      "ĠPat": 4905,
      "ĠCháº¥p": 4906,
      "ĠHá»Ĺ": 4907,
      "Ġ1992": 4908,
      "ĠANTÄĲ": 4909,
      "ĠghÃ©": 4910,
      "ĠVÃ²ng": 4911,
      "Ġmáº¯m": 4912,
      "Ġcua": 4913,
      "HS": 4914,
      "VTC": 4915,
      "Ġá»ª": 4916,
      "ĠlÃª": 4917,
      "ĠFed": 4918,
      "á»ĺ": 4919,
      "ĠngÆ°ng": 4920,
      "Ġ08": 4921,
      "ĠBÃ¡ch": 4922,
      "etro": 4923,
      "ĠnÃ´n": 4924,
      "Ġbl": 4925,
      "ĠTwitter": 4926,
      "Ġngáº¥t": 4927,
      "67": 4928,
      "BS": 4929,
      "ER": 4930,
      "burg": 4931,
      "ĠAss": 4932,
      "Ġloa": 4933,
      "uss": 4934,
      "ĠTum": 4935,
      "á»°": 4936,
      "ĠFrank": 4937,
      "ĠHuÃ¢n": 4938,
      "ĠThÆ°a": 4939,
      "Ġdáº·m": 4940,
      "ĠLang": 4941,
      "Ġtá»¥i": 4942,
      "ates": 4943,
      "ĠFPT": 4944,
      "ĠDÃ¹ng": 4945,
      "iev": 4946,
      "700": 4947,
      "ĠThá»©c": 4948,
      "ĠRÃµ": 4949,
      "BP": 4950,
      "Ġfor": 4951,
      "ĠSar": 4952,
      "Ġbáº¥y": 4953,
      "ĠEVN": 4954,
      "he": 4955,
      "Ġ98": 4956,
      "ĠBÃ³ng": 4957,
      "ĠBuá»ķi": 4958,
      "ĠÃĤm": 4959,
      "ĠFDI": 4960,
      "Ġbá»ĵ": 4961,
      "Ġnhiáº¿p": 4962,
      "GP": 4963,
      "ĠThÃ´i": 4964,
      "ĠBM": 4965,
      "ĠSaudi": 4966,
      "Ġ110": 4967,
      "ĠCÃ¡n": 4968,
      "Ġdá»Ĺ": 4969,
      "ĠCháº¿": 4970,
      "Ġvá»ĭnh": 4971,
      "ĠMÆ°á»Ŀng": 4972,
      "Ġbuá»ĵng": 4973,
      "Ġ07": 4974,
      "Ġshowbiz": 4975,
      "combank": 4976,
      "ĠViettel": 4977,
      "ĠnhÆ°á»Ŀng": 4978,
      "Ġemail": 4979,
      "VOV": 4980,
      "ĠKur": 4981,
      "Ġvan": 4982,
      "use": 4983,
      "ĠxÆ¡": 4984,
      "Ġbar": 4985,
      "ĠLá»¥c": 4986,
      "ĠluÃ¢n": 4987,
      "Ġvá»©t": 4988,
      "Ġsáº¿p": 4989,
      "ĠBank": 4990,
      "ĠtÃ²": 4991,
      "Anh": 4992,
      "Ġváº¡ch": 4993,
      "ĠDiá»ħm": 4994,
      "ĠtÃº": 4995,
      "ĠlÃ³t": 4996,
      "ĠnÆ°Æ¡ng": 4997,
      "ĠMun": 4998,
      "ĠODA": 4999,
      "Ġquá»·": 5000,
      "Ġcá»Ľ": 5001,
      "ĠSV": 5002,
      "ĠCá»¦": 5003,
      "ĠLáº¥y": 5004,
      "ĠÄĲá»ĳng": 5005,
      "ĠTÃ¡m": 5006,
      "nham": 5007,
      "Ġcom": 5008,
      "ĠNgÆ°Æ¡i": 5009,
      "ĠCá»¦A": 5010,
      "ĠHang": 5011,
      "andal": 5012,
      "áº¿ch": 5013,
      "ĠSim": 5014,
      "ĠÄĳáº¯ng": 5015,
      "ÃĬN": 5016,
      "ĠSil": 5017,
      "ĠBol": 5018,
      "imir": 5019,
      "ĠHolly": 5020,
      "ĠÄĲá»ĵ": 5021,
      "ĠStev": 5022,
      "ĠÄĳÃ¨": 5023,
      "AP": 5024,
      "ĠÃĢ": 5025,
      "ĠÄĤn": 5026,
      "tt": 5027,
      "ĠVáºŃt": 5028,
      "ives": 5029,
      "ĠHÃĢ": 5030,
      "ĠtÃ¡ng": 5031,
      "ĠÄĲáº£o": 5032,
      "Ġsc": 5033,
      "ĠKhang": 5034,
      "bon": 5035,
      "Ġ77": 5036,
      "ĠBÄĲS": 5037,
      "ĠthÃ¨m": 5038,
      "Ġgiá»ģng": 5039,
      "ĠquÃ¡t": 5040,
      "ĠnÃ´": 5041,
      "Ġgas": 5042,
      "42": 5043,
      "ower": 5044,
      "uck": 5045,
      "ĠcÃ¡m": 5046,
      ",...": 5047,
      "ĠGo": 5048,
      "tu": 5049,
      "ĠHen": 5050,
      "ĠDÆ°á»£c": 5051,
      "Ġthá»§ng": 5052,
      "ĠAv": 5053,
      "ĠnhÃ³c": 5054,
      "Ġchui": 5055,
      "KH": 5056,
      "Ġtui": 5057,
      "ĠEs": 5058,
      "Ġno": 5059,
      "ews": 5060,
      "ure": 5061,
      "Ġkhuáº¥t": 5062,
      "Ġ78": 5063,
      "ĠDan": 5064,
      "ĠATGT": 5065,
      "ĠlÃ©o": 5066,
      "Ġ62": 5067,
      "ille": 5068,
      "ĠBao": 5069,
      "ĠMe": 5070,
      "ĠVladimir": 5071,
      "Ġngá»ĳc": 5072,
      "Ġthá»ģm": 5073,
      "ĠcÆ°ng": 5074,
      "Ġhao": 5075,
      "Ġnhá»įn": 5076,
      "ĠSeoul": 5077,
      "ĠBel": 5078,
      "ĠSup": 5079,
      "anda": 5080,
      "UB": 5081,
      "ĠLou": 5082,
      "ima": 5083,
      "%).": 5084,
      "Ġngá»įc": 5085,
      "ĠvÃ¢n": 5086,
      "Ġnghiá»ĩt": 5087,
      "ĠnÃ¢u": 5088,
      "Ġá»¨ng": 5089,
      "ĠBarack": 5090,
      "ĠmÃŃa": 5091,
      "ĠQuyÃªn": 5092,
      "08": 5093,
      "Ġcm": 5094,
      "Ã²m": 5095,
      "ĠMÃ´": 5096,
      "ĠHan": 5097,
      "ĠHill": 5098,
      "obot": 5099,
      "ĠAFF": 5100,
      "ĠxÃ´i": 5101,
      "á»Ľn": 5102,
      "ĠMÃ´ng": 5103,
      "ĠÃģp": 5104,
      "ĠTá»ĳt": 5105,
      "ĠNLÄĲ": 5106,
      "á»ĩn": 5107,
      "ĠchuÃ´ng": 5108,
      "enc": 5109,
      "Ġti": 5110,
      "Ġthá»ĭnh": 5111,
      "Ġ61": 5112,
      "Ġlau": 5113,
      "Ġ1997": 5114,
      "Ġkhoang": 5115,
      "Ġson": 5116,
      "ĠÄĳÃŃnh": 5117,
      "itt": 5118,
      "ĠvÃ¡n": 5119,
      "Ġviáº¿ng": 5120,
      "ĠxÄĥm": 5121,
      "Ġmá»¥n": 5122,
      "ĠXanh": 5123,
      "ĠPa": 5124,
      "ĠKiá»ĩt": 5125,
      "ander": 5126,
      "Å©a": 5127,
      "ĠFord": 5128,
      "ĠmÃ¬n": 5129,
      "ĠKhanh": 5130,
      "ĠÃ³c": 5131,
      "uela": 5132,
      "ĠLig": 5133,
      "ĠKháº£i": 5134,
      "ĠPalest": 5135,
      "ĠUyÃªn": 5136,
      "ĠSN": 5137,
      "ottenham": 5138,
      "ĠBÃ¡n": 5139,
      "ĠVáº¡n": 5140,
      "ings": 5141,
      "ĠTHA": 5142,
      "ĠnÃłn": 5143,
      "Ġgáº¥u": 5144,
      "ĠOk": 5145,
      "ĠvÃº": 5146,
      "Ġthá»ģ": 5147,
      "ĠHO": 5148,
      "ĠXÃ©t": 5149,
      "Ġnhá»¥c": 5150,
      "zy": 5151,
      "Ġgáº§m": 5152,
      "ĠBiá»ĥu": 5153,
      "Ġ/.": 5154,
      "09": 5155,
      "Ġchip": 5156,
      "lan": 5157,
      "ĠCAND": 5158,
      "199": 5159,
      "ĠNguyá»ĩt": 5160,
      "Ġchá»įc": 5161,
      "ĠGP": 5162,
      "Ġeo": 5163,
      "66": 5164,
      "má»Ļt": 5165,
      "Ġváº·t": 5166,
      "ĠhÃłn": 5167,
      "ĠGÃ²": 5168,
      "ĠLÆ°á»£ng": 5169,
      "ĠTel": 5170,
      "Ġkáº½": 5171,
      "ĠVenez": 5172,
      "abe": 5173,
      "ĠCEO": 5174,
      "ĠBur": 5175,
      "ĠNháº¡c": 5176,
      "ĠvÄ©nh": 5177,
      "ĠÄĳáº¯m": 5178,
      "Ġtre": 5179,
      "ĠOp": 5180,
      "LC": 5181,
      "int": 5182,
      "Ġdiá»ĩu": 5183,
      "ĠxÃ¡m": 5184,
      "á»Ľc": 5185,
      "ĠSn": 5186,
      "Ġlá»Ļt": 5187,
      "ĠchiÃªn": 5188,
      "ĠTáº¡o": 5189,
      "ĠCarl": 5190,
      "any": 5191,
      "Ġneo": 5192,
      "lÃŃt": 5193,
      "ĠÄĳáº¡m": 5194,
      "ĠFIFA": 5195,
      "ment": 5196,
      "ĠMTV": 5197,
      "ĠMerc": 5198,
      "aya": 5199,
      "ĠFlor": 5200,
      "Ġcá»ĵn": 5201,
      "ise": 5202,
      "ĠGeorge": 5203,
      "Ġkhá»ĳc": 5204,
      "ĠcÃ²i": 5205,
      "AR": 5206,
      "ĠMartin": 5207,
      "Ġ1995": 5208,
      "Ġ180": 5209,
      "Ġngáº§n": 5210,
      "ÃŃp": 5211,
      "ĠPhá»ĳ": 5212,
      "ĠPalestine": 5213,
      "ounce": 5214,
      "way": 5215,
      "EU": 5216,
      "ĠOh": 5217,
      "ĠRod": 5218,
      "Ġrá»Ļ": 5219,
      "ĠSm": 5220,
      "Ġ69": 5221,
      "ĠGhi": 5222,
      "Ġngá»¡": 5223,
      "ĠmÃ´ng": 5224,
      "ect": 5225,
      "Ġtia": 5226,
      "ĠMus": 5227,
      "Ġcáº¥y": 5228,
      "Ġam": 5229,
      "ĠBig": 5230,
      "Ġkhao": 5231,
      "ĠbÃ¨n": 5232,
      "ĠPlus": 5233,
      "ĠnÃ©n": 5234,
      "ĠÃĶi": 5235,
      "ĠlÆ°á»Ľt": 5236,
      "ĠTráº¥n": 5237,
      "ĠLat": 5238,
      "ĠSL": 5239,
      "Ġrobot": 5240,
      "ĠCÃºp": 5241,
      "ĠBill": 5242,
      "ji": 5243,
      "sa": 5244,
      "stan": 5245,
      "ĠTottenham": 5246,
      "yan": 5247,
      "ĠÄĳá»ĩm": 5248,
      "ĠRooney": 5249,
      "ĠÆ°": 5250,
      "Ġ1993": 5251,
      "ĠVenezuela": 5252,
      "ĠPeter": 5253,
      "Ġngáº«u": 5254,
      "ĠtÆ°á»Ľi": 5255,
      "ĠThÃ¬": 5256,
      "Ġ1994": 5257,
      "ĠQUY": 5258,
      "ĠHung": 5259,
      "Ġnáº¡": 5260,
      "SCL": 5261,
      "ĠmáºŃp": 5262,
      "Ġonline": 5263,
      "ĠSouth": 5264,
      "Ġdáº·n": 5265,
      "ĠFl": 5266,
      "ĠAra": 5267,
      "Ġchay": 5268,
      "ors": 5269,
      "ĠÆ°á»Ľt": 5270,
      "ĠlÃ¡nh": 5271,
      "ĠCáº·p": 5272,
      "ĠTQ": 5273,
      "ĠVina": 5274,
      "ĠGuard": 5275,
      "VC": 5276,
      "ĠMÃª": 5277,
      "ĠGiá»¯a": 5278,
      "Ġ88": 5279,
      "ĠÄĳiá»ģn": 5280,
      "ĠrÃ²": 5281,
      "ĠbÃ³p": 5282,
      "ĠÄĳinh": 5283,
      "atch": 5284,
      "ĠLuÃ¢n": 5285,
      "uel": 5286,
      "07": 5287,
      "ĠiPad": 5288,
      "06": 5289,
      "ĠPhÃ¹": 5290,
      "52": 5291,
      "tá»īnh": 5292,
      "ĠMáº¡ch": 5293,
      "ĠBÆ°u": 5294,
      "ĠTor": 5295,
      "aco": 5296,
      "á»¨": 5297,
      "ĠÄĳiÃªu": 5298,
      "áº¢N": 5299,
      "Ġmá»Ļc": 5300,
      "ĠOne": 5301,
      "ire": 5302,
      "Ġcar": 5303,
      "Ġdáº¡n": 5304,
      "enko": 5305,
      "Ġ[": 5306,
      "der": 5307,
      "ĠRi": 5308,
      "Ġthá»ĳi": 5309,
      "Ġná»ĳt": 5310,
      "ĠKháº£": 5311,
      "ĠFB": 5312,
      "tÆ°Æ¡ng": 5313,
      "ĠTrÃºc": 5314,
      "Ġtháº¯p": 5315,
      "Ġcá»įc": 5316,
      "ĠGh": 5317,
      "ĠFr": 5318,
      "ĠTáº¡": 5319,
      "ĠkÃ¬a": 5320,
      "ĠTá»«ng": 5321,
      "Æ¯T": 5322,
      "ĠNgÆ°á»£c": 5323,
      "Ġá»Ĵ": 5324,
      "ĠUr": 5325,
      "ĠBÄĲBP": 5326,
      "ĠGiá»įng": 5327,
      "ĠtrÃ¡n": 5328,
      "ali": 5329,
      "ĠHollywood": 5330,
      "ĠkÃ©p": 5331,
      "Ġrao": 5332,
      "ĠKhÆ°Æ¡ng": 5333,
      "Ġlá»į": 5334,
      "ĠcÃłnh": 5335,
      "ĠÄĲá»Ļc": 5336,
      "ĠMur": 5337,
      "eland": 5338,
      "ĠVÃłi": 5339,
      "fe": 5340,
      "Ġxen": 5341,
      "ĠQuá»·": 5342,
      "ĠÄĳÃ´n": 5343,
      "ci": 5344,
      "td": 5345,
      "xin": 5346,
      "ale": 5347,
      "Ġthá»īnh": 5348,
      "zo": 5349,
      "Ġgiang": 5350,
      "ĠGiai": 5351,
      "ĠTÆ¯": 5352,
      "de": 5353,
      "Ġhá»įng": 5354,
      "its": 5355,
      "Ġtáº¡ng": 5356,
      "CO": 5357,
      "ĠDÃ²ng": 5358,
      "ĠChÃłng": 5359,
      "áº¿m": 5360,
      "NGT": 5361,
      "Thanh": 5362,
      "Ġnáº§y": 5363,
      "ĠRáºŃp": 5364,
      "bao": 5365,
      "ĠTur": 5366,
      "van": 5367,
      "Ġvá»Ĺ": 5368,
      "Ġ130": 5369,
      "Ġ1980": 5370,
      "ĠHa": 5371,
      "Ġquáº§y": 5372,
      "Ġsen": 5373,
      "á»¥a": 5374,
      "ĠxÃ¡t": 5375,
      "Ġxáº»": 5376,
      "elle": 5377,
      "ÄĲÃł": 5378,
      "Ġ86": 5379,
      "ĠTPO": 5380,
      "ealand": 5381,
      "bi": 5382,
      "phÆ°á»Ŀng": 5383,
      "ĠrÃ¢u": 5384,
      "ĠkhÃŃa": 5385,
      "okia": 5386,
      "ventus": 5387,
      "ĠChuáº©n": 5388,
      "ĠMá»Ļc": 5389,
      "ĠXI": 5390,
      "Ġ92": 5391,
      "Ġtáº¡": 5392,
      "ĠphÃŃm": 5393,
      "ĠsÆ°á»Ŀn": 5394,
      "ĠSport": 5395,
      "gan": 5396,
      "ĠtrÄĥn": 5397,
      "áº¥ng": 5398,
      "SA": 5399,
      "ĠSon": 5400,
      "Ġgiáº·t": 5401,
      "ĠEver": 5402,
      "ĠHÃ¢n": 5403,
      "ĠKo": 5404,
      "ĠGroup": 5405,
      "alo": 5406,
      "ĠMel": 5407,
      "Ġfacebook": 5408,
      "ĠNi": 5409,
      "ĠBBC": 5410,
      "ĠĠĠĠ": 5411,
      "ĠBID": 5412,
      "ĠÄĲá»Ĭ": 5413,
      "ĠLin": 5414,
      "Ġ1996": 5415,
      "ĠMiá»ģn": 5416,
      "ĠZealand": 5417,
      "top": 5418,
      "áº»m": 5419,
      "Ġná»Ľi": 5420,
      "thuá»Ļc": 5421,
      "Ġnan": 5422,
      "cus": 5423,
      "Ġ1000": 5424,
      "ĠxÃ¬": 5425,
      "ĠLos": 5426,
      "Ġ900": 5427,
      "Ġgieo": 5428,
      "ĠsÃ©t": 5429,
      "ĠThom": 5430,
      "els": 5431,
      "ĠÄĲBSCL": 5432,
      "oli": 5433,
      "Ġkhá»ī": 5434,
      "ĠkÃ¨": 5435,
      "ĠHÃłm": 5436,
      "Ġ76": 5437,
      "ĠGrand": 5438,
      "ĠTK": 5439,
      "ĠNhiá»ĩm": 5440,
      "ĠAPEC": 5441,
      "ĠGer": 5442,
      "PA": 5443,
      "ĠNokia": 5444,
      "Ġchuá»ĵng": 5445,
      "ĠBá»ĳn": 5446,
      "ĠVTC": 5447,
      "ling": 5448,
      "ĠMua": 5449,
      "Ġcá»Ĺ": 5450,
      "mi": 5451,
      "mo": 5452,
      "ĠDÄ©": 5453,
      "Æ¯á»ļ": 5454,
      "ĠTra": 5455,
      "che": 5456,
      "Ġtem": 5457,
      "ĠbÃ³c": 5458,
      "ĠNat": 5459,
      "lay": 5460,
      "ĠDam": 5461,
      "ĠvÄĥng": 5462,
      "Ġvá»įt": 5463,
      "ps": 5464,
      "akh": 5465,
      "ĠLau": 5466,
      "Ġdá»ĵi": 5467,
      "Ġpháº³ng": 5468,
      "ĠVÆ°á»Ŀn": 5469,
      "ĠTranh": 5470,
      "ĠrÃ¡o": 5471,
      "á»£t": 5472,
      "ĠChuyá»ĥn": 5473,
      "CA": 5474,
      "ĠVá»ĳn": 5475,
      "ÃĮ": 5476,
      "ĠTai": 5477,
      "Ġse": 5478,
      "ĠgáºŃy": 5479,
      "ĠÄĲá»ı": 5480,
      "esh": 5481,
      "Ġsiáº¿t": 5482,
      "ĠChinh": 5483,
      "ĠÄĲoáº¡n": 5484,
      "ĠSir": 5485,
      "ival": 5486,
      "Ġrun": 5487,
      "ĠÄĳÅ©a": 5488,
      "aza": 5489,
      "Ġcáº©u": 5490,
      "ĠTháº¥t": 5491,
      "ĠxuÃ´i": 5492,
      "Ġgáº¡t": 5493,
      "ida": 5494,
      "Ġ71": 5495,
      "ĠChá»ĵng": 5496,
      "GÄĲ": 5497,
      "ĠFranc": 5498,
      "ĠchÃ©o": 5499,
      "ila": 5500,
      "ĠCos": 5501,
      "Ġ79": 5502,
      "ĠMaria": 5503,
      "ĠJuventus": 5504,
      "kok": 5505,
      "ĠVND": 5506,
      "Ġlives": 5507,
      "ĠPhá»ĳi": 5508,
      "ĠTá»©": 5509,
      "Ġnáº¯p": 5510,
      "ĠJer": 5511,
      "Ġrá»ĳt": 5512,
      "ĠKiev": 5513,
      "ĠNSÆ¯T": 5514,
      "ĠChÃºc": 5515,
      "port": 5516,
      "ĠLÄĥng": 5517,
      "ĠDa": 5518,
      "Ġrá»ĩt": 5519,
      "RO": 5520,
      "Ġchá»ĳn": 5521,
      "ĠMot": 5522,
      "ĠSuper": 5523,
      "Ngh": 5524,
      "ĠColom": 5525,
      "ĠTrá»±c": 5526,
      "ĠGTGT": 5527,
      "ĠTNGT": 5528,
      "ĠTTC": 5529,
      "'s": 5530,
      "ĠNey": 5531,
      "ye": 5532,
      "ĠAli": 5533,
      "ĠFC": 5534,
      "ĠCas": 5535,
      "we": 5536,
      "Ġnha": 5537,
      "ĠMB": 5538,
      "ĠKi": 5539,
      "aka": 5540,
      "ĠTri": 5541,
      "ĠNgÆ°": 5542,
      "ĠAh": 5543,
      "02": 5544,
      "69": 5545,
      "ĠchÃ¨o": 5546,
      "ĠVá»ĩ": 5547,
      "Ġnuá»ĳt": 5548,
      "Ġ350": 5549,
      "ĠBos": 5550,
      "PP": 5551,
      "ĠCO": 5552,
      "yn": 5553,
      "ĠÄĲBQH": 5554,
      "ÃĤN": 5555,
      "app": 5556,
      "ĠGI": 5557,
      "ĠÄĳáº¥m": 5558,
      "ĠcháºŃu": 5559,
      "ĠnghÃªnh": 5560,
      "ĠkhiÃªm": 5561,
      "77": 5562,
      "Ġngáº·t": 5563,
      "ĠBern": 5564,
      "89": 5565,
      "IDS": 5566,
      "Ġngá»¥c": 5567,
      "ĠTinh": 5568,
      "Ġmau": 5569,
      "ĠNeymar": 5570,
      "ĠNÃ¢ng": 5571,
      "ĠYoung": 5572,
      "edes": 5573,
      "eta": 5574,
      "ThÃ¡i": 5575,
      "ĠXK": 5576,
      "ĠchÃ©n": 5577,
      "ĠquyÃªn": 5578,
      "Vietnam": 5579,
      "Ġá»§i": 5580,
      "Ġni": 5581,
      "ĠLÃłng": 5582,
      "Ġsáº¡c": 5583,
      "ĠMang": 5584,
      "ĠQatar": 5585,
      "ĠOscar": 5586,
      "ĠTrá»Ł": 5587,
      "Ġgai": 5588,
      "ĠShin": 5589,
      "Ġ1991": 5590,
      "ĠhÃ£m": 5591,
      "PG": 5592,
      "ĠtÆ¡": 5593,
      "igh": 5594,
      "Ġtá»ıi": 5595,
      "ĠIm": 5596,
      "Ġ84": 5597,
      "ĠJenn": 5598,
      "2020": 5599,
      "ĠWhi": 5600,
      "rol": 5601,
      "ĠNÃºi": 5602,
      "ĠdÆ°ng": 5603,
      "ĠThan": 5604,
      "Ġ2030": 5605,
      "ĠbÃ¡u": 5606,
      "press": 5607,
      "ĠKhuyáº¿n": 5608,
      "Ġcuá»Ļn": 5609,
      "Ġoxy": 5610,
      "ĠDani": 5611,
      "ĠtrÆ¡n": 5612,
      "ĠMir": 5613,
      "ÃģC": 5614,
      "53": 5615,
      "ĠdÃ¬": 5616,
      "ius": 5617,
      "ĠBangkok": 5618,
      "Ġcá»«": 5619,
      "ĠÆ¯á»Ľc": 5620,
      "ĠTp": 5621,
      "ĠÄĲáº¯c": 5622,
      "tá»©c": 5623,
      "Ġtriáº¿t": 5624,
      "ĠlÃ¡ch": 5625,
      "Ġradar": 5626,
      "ĠmÃ¹ng": 5627,
      "Ġrong": 5628,
      "ger": 5629,
      "ĠxÃ©": 5630,
      "ĠgÃµ": 5631,
      "72": 5632,
      "ĠgáºŃt": 5633,
      "ĠGold": 5634,
      "ĠghÃª": 5635,
      "ĠtÄĥm": 5636,
      "eda": 5637,
      "ĠphÃ´": 5638,
      "ĠBeck": 5639,
      "arao": 5640,
      "ĠÄĲá»©ng": 5641,
      "Ġlá»Ŀ": 5642,
      "ĠcÃ²": 5643,
      "otein": 5644,
      "ĠCro": 5645,
      "Ġ73": 5646,
      "ĠTÆ°á»Ľng": 5647,
      "áº¦": 5648,
      "ĠCá»ķng": 5649,
      "Ġbá»±c": 5650,
      "71": 5651,
      "2007": 5652,
      "ons": 5653,
      "Ġná»Ļ": 5654,
      "ivi": 5655,
      "ĠBuÃ´n": 5656,
      "ĠCNN": 5657,
      "ĠDis": 5658,
      "Äĥk": 5659,
      "HNM": 5660,
      "ĠÄĲá»ĬNH": 5661,
      "ĠPep": 5662,
      "ll": 5663,
      "ĠCat": 5664,
      "ĠAll": 5665,
      "ĠrÃ¡ch": 5666,
      "63": 5667,
      "cy": 5668,
      "Ġhá»ĳt": 5669,
      "ĠSá»Ńa": 5670,
      "ĠDiá»ĩp": 5671,
      "ĠáºŃp": 5672,
      "Ġgu": 5673,
      "cá»ķ": 5674,
      "ĠMH": 5675,
      "Ġná»į": 5676,
      "ĠJun": 5677,
      "Ġá»ķng": 5678,
      "á»Ĭ": 5679,
      "ĠLÄ©nh": 5680,
      "04": 5681,
      "ĠNov": 5682,
      "ĠDÆ°": 5683,
      "ere": 5684,
      "ĠkÃŃp": 5685,
      "ja": 5686,
      "ĠquáºŃt": 5687,
      "Ġyou": 5688,
      "ĠIb": 5689,
      "ĠlÃ©n": 5690,
      "ĠGáº·p": 5691,
      "ĠVá»Ģ": 5692,
      "ĠNe": 5693,
      "ĠChuyáº¿n": 5694,
      "ĠBÃ£i": 5695,
      "emen": 5696,
      "ustin": 5697,
      "ÃĿ": 5698,
      "men": 5699,
      "itco": 5700,
      "ĠNGH": 5701,
      "letico": 5702,
      "nes": 5703,
      "Ġká»ĩ": 5704,
      "ĠTPP": 5705,
      "Ġ83": 5706,
      "ĠÃª": 5707,
      "TTP": 5708,
      "ĠGÃ³c": 5709,
      "wa": 5710,
      "ĠNguy": 5711,
      "ĠdÃ©p": 5712,
      "ĠKu": 5713,
      "Ġchiáº¿t": 5714,
      "ĠKhÃŃ": 5715,
      "ĠMunich": 5716,
      "ĠÃªm": 5717,
      "gar": 5718,
      "ĠÄĳáº·n": 5719,
      "Ġváº¥p": 5720,
      "aki": 5721,
      "ĠvÃ¡c": 5722,
      "ĠCÆ°": 5723,
      "Ġnhá»©c": 5724,
      "ĠAC": 5725,
      "Ġlá»Ļng": 5726,
      "Ġchen": 5727,
      "Ġdiá»ħu": 5728,
      "ĠTC": 5729,
      "ĠAz": 5730,
      "ĠxoÃ¡y": 5731,
      "ĠColombia": 5732,
      "ĠMax": 5733,
      "ĠchÃ¬": 5734,
      "erson": 5735,
      "ĠLiga": 5736,
      "ita": 5737,
      "900": 5738,
      "ĠVKSND": 5739,
      "ĠMed": 5740,
      "ĠDr": 5741,
      "ĠJord": 5742,
      "ĠSony": 5743,
      "Ġtá»¥t": 5744,
      "ĠNV": 5745,
      "____": 5746,
      "ĠSÃ¡ch": 5747,
      "ĠEdward": 5748,
      "ĠOld": 5749,
      "ts": 5750,
      "Ġtáº©u": 5751,
      "ence": 5752,
      "ĠCATP": 5753,
      "ĠNig": 5754,
      "ĠrÄĥn": 5755,
      "Ġchá»£t": 5756,
      "ĠbÆ¡": 5757,
      "ĠNháº±m": 5758,
      "ene": 5759,
      "ĠDO": 5760,
      "Ho": 5761,
      "ĠWall": 5762,
      "ĠthÃ¬a": 5763,
      "Ġháº»m": 5764,
      "ĠVNPT": 5765,
      "ĠKe": 5766,
      "ĠIP": 5767,
      "Ġlá»Ļc": 5768,
      "ski": 5769,
      "Ġbo": 5770,
      "ĠLad": 5771,
      "Ġmá»ĭn": 5772,
      "Ġ82": 5773,
      "ĠHáº¡t": 5774,
      "ĠÄĳÃ¹i": 5775,
      "Ġlam": 5776,
      "ĠLá»Ļ": 5777,
      "Ġtam": 5778,
      "Ġ81": 5779,
      "ĠVietin": 5780,
      "ĠNic": 5781,
      "Ġrá»Ľt": 5782,
      "rov": 5783,
      "ĠCu": 5784,
      "ĠvÃ¡ch": 5785,
      "03": 5786,
      "MS": 5787,
      "ĠrÃ¹a": 5788,
      "ago": 5789,
      "ĠLÃ²": 5790,
      "ĠÃºt": 5791,
      "ĠCrim": 5792,
      "ĠxÆ°á»Ľng": 5793,
      "ĠsuÃ½t": 5794,
      "ĠBor": 5795,
      "ĠnÃ²ng": 5796,
      "ĠCÃº": 5797,
      "INH": 5798,
      "ĠbÃ´i": 5799,
      "ĠchoÃ¡ng": 5800,
      "ĠUber": 5801,
      "Ġgirl": 5802,
      "ĠAmer": 5803,
      "Ġaxit": 5804,
      "//": 5805,
      "sey": 5806,
      "ĠchiÃªm": 5807,
      "59": 5808,
      "ĠTÆ°á»Łng": 5809,
      "ĠSHB": 5810,
      "ĠMiura": 5811,
      "Ġxoa": 5812,
      "ĠcÃºi": 5813,
      "acom": 5814,
      "ĠkhoÃ¡i": 5815,
      "SCO": 5816,
      "Ġ%.": 5817,
      "Ġquáº¡t": 5818,
      "Ġthá»Ńa": 5819,
      "MB": 5820,
      "QL": 5821,
      "ĠÄĳá»¥c": 5822,
      "ĠJim": 5823,
      "Ġcá»į": 5824,
      "ĠKhÃ³": 5825,
      "ĠAtletico": 5826,
      "Tá»ķng": 5827,
      "ss": 5828,
      "ĠZing": 5829,
      "Ġláº«y": 5830,
      "ĠÃ¢u": 5831,
      "Ġscandal": 5832,
      "ĠKhuÃª": 5833,
      "ĠNick": 5834,
      "ks": 5835,
      "chi": 5836,
      "ĠThÃº": 5837,
      "tic": 5838,
      "Iá»Ĥ": 5839,
      "ĠTáº¡p": 5840,
      "ĠhÃ©": 5841,
      "ĠcÆ°á»£c": 5842,
      "enger": 5843,
      "ĠÄĲá»Ŀi": 5844,
      "Háº£i": 5845,
      "ĠHÃło": 5846,
      "ĠRed": 5847,
      "ĠÄĲáº±ng": 5848,
      "ĠTHU": 5849,
      "ki": 5850,
      "Ġkhuya": 5851,
      "Ġlung": 5852,
      "air": 5853,
      "ĠBro": 5854,
      "ĠmÃłi": 5855,
      "ĠLouis": 5856,
      "Ġ87": 5857,
      "ĠtÃ¡t": 5858,
      "TO": 5859,
      "estival": 5860,
      "Ġsh": 5861,
      "Gi": 5862,
      "54": 5863,
      "Ġ89": 5864,
      "be": 5865,
      "ĠMÃłn": 5866,
      "ĠSLNA": 5867,
      "ĠBIDV": 5868,
      "ĠInf": 5869,
      "ĠVictoria": 5870,
      "ĠVer": 5871,
      "ĠJan": 5872,
      "ĠLG": 5873,
      "ĠLÃ£o": 5874,
      "ĠMáºŃu": 5875,
      "Ġbá»«ng": 5876,
      "ĠBre": 5877,
      "ĠTrÃ¢m": 5878,
      "ome": 5879,
      "Ġ74": 5880,
      "ni": 5881,
      "ĠÄĳáº«m": 5882,
      "://": 5883,
      "ĠLáº§u": 5884,
      "Ġvá»Ŀ": 5885,
      "Ġbá»ĩ": 5886,
      "ĠÄĳÃ¨o": 5887,
      "ĠphÃ¬": 5888,
      "ĠPha": 5889,
      "ĠSU": 5890,
      "Ġprotein": 5891,
      "ĠMÃ¹i": 5892,
      "ĠKen": 5893,
      "ĠKat": 5894,
      "thÃ¹ng": 5895,
      "Ġcá»ĳi": 5896,
      "Ġhá»ķng": 5897,
      "Ġnhá»įc": 5898,
      "ĠPe": 5899,
      "si": 5900,
      "uki": 5901,
      "ĠKhÃ¡m": 5902,
      "ĠmÃ¡c": 5903,
      "ĠHaw": 5904,
      "OSE": 5905,
      "TH": 5906,
      "ĠVol": 5907,
      "Ġtáº¥p": 5908,
      "ĠMail": 5909,
      "Ġnhá»Ļn": 5910,
      "ĠPost": 5911,
      "sky": 5912,
      "58": 5913,
      "Ġ96": 5914,
      "Ġlá»ĳp": 5915,
      "ĠBáº§u": 5916,
      "ĠMag": 5917,
      "Ġsá»į": 5918,
      "ĠMr": 5919,
      "ĠmiÃªu": 5920,
      "ĠTech": 5921,
      "Ġxáº¯n": 5922,
      "bor": 5923,
      "Ġbáº¡t": 5924,
      "ĠEur": 5925,
      "Ã³p": 5926,
      "ĠBMW": 5927,
      "Ġchá»Ľ": 5928,
      "ĠPhá»¥ng": 5929,
      "tion": 5930,
      "Ġbong": 5931,
      "aku": 5932,
      "Ġmáº¡": 5933,
      "ĠKS": 5934,
      "ĠMercedes": 5935,
      "ĠÆ": 5936,
      "ĠCM": 5937,
      "ĠKÃ½": 5938,
      "ĠPhá»ķ": 5939,
      "su": 5940,
      "Ġmáº¯ng": 5941,
      "ĠPo": 5942,
      "ĠngÃ¢y": 5943,
      "ital": 5944,
      "ppo": 5945,
      "Ġnáº¥y": 5946,
      "HC": 5947,
      "mail": 5948,
      "76": 5949,
      "ĠATM": 5950,
      "Ġhoi": 5951,
      "ĠÄĳan": 5952,
      "ĠNhá»Ľ": 5953,
      "ĠCháº¥n": 5954,
      "ele": 5955,
      "----": 5956,
      "Ġsá»«ng": 5957,
      "ĠArabia": 5958,
      "ĠbÆ°á»Łi": 5959,
      "ĠMÃ³n": 5960,
      "ĠLá»Ľn": 5961,
      "Ġliveshow": 5962,
      "col": 5963,
      "ĠCrimea": 5964,
      "ĠIdol": 5965,
      "ĠÄĲÃ¡": 5966,
      "ĠWenger": 5967,
      "ĠÄĲá»ģn": 5968,
      "ker": 5969,
      "Ġlá»¯": 5970,
      "ĠchÃ¡o": 5971,
      "Ġbáº©m": 5972,
      "Ġ140": 5973,
      "ĠvÃ©t": 5974,
      "Ġtháº£n": 5975,
      "ĠBus": 5976,
      "rah": 5977,
      "Ġna": 5978,
      "ĠRichard": 5979,
      "ĠPol": 5980,
      "Ġrá»ħ": 5981,
      "NgÆ°á»Ŀi": 5982,
      "Ġlá»¥a": 5983,
      "ĠBá»ı": 5984,
      "NLÄĲO": 5985,
      "Ġrá»¥i": 5986,
      "ĠNÃłng": 5987,
      "ĠVIá»Ĩ": 5988,
      "Ġ1975": 5989,
      "ĠlÅ©ng": 5990,
      "ĠSuá»ĳt": 5991,
      "ĠMong": 5992,
      "ĠVietcombank": 5993,
      "ĠtrÃłng": 5994,
      "DS": 5995,
      "Ġquáº¥y": 5996,
      "Ġnhiá»ħu": 5997,
      "ĠAud": 5998,
      "ĠNote": 5999,
      "ÆłNG": 6000,
      "ĠTháº±ng": 6001,
      "Ġngá»ı": 6002,
      "Ġ1982": 6003,
      "ĠGrab": 6004,
      "á»Ķ": 6005,
      "ĠKhÃ´i": 6006,
      "ĠXi": 6007,
      "ĠAngela": 6008,
      "ĠbÆ°á»Ľ": 6009,
      "Ġ160": 6010,
      "ory": 6011,
      "ĠgiÆ¡": 6012,
      "ĠFA": 6013,
      "Ġlá»ĳc": 6014,
      "fford": 6015,
      "ĠJordan": 6016,
      "Ġri": 6017,
      "Ġtáº¥u": 6018,
      "ĠPSG": 6019,
      "phu": 6020,
      "ĠEv": 6021,
      "ĠTuyá»ĥn": 6022,
      "ĠÄĳun": 6023,
      "etty": 6024,
      "res": 6025,
      "Ġgam": 6026,
      "ĠAbe": 6027,
      "Ġsexy": 6028,
      "vi": 6029,
      "SI": 6030,
      "ĠTiáº¿t": 6031,
      "GDVN": 6032,
      "TTg": 6033,
      "ĠFrancis": 6034,
      "ĠMart": 6035,
      "araoke": 6036,
      "ĠlÃºn": 6037,
      "ĠCá»§": 6038,
      "UBND": 6039,
      "bin": 6040,
      "Ġráº«y": 6041,
      "Hu": 6042,
      "own": 6043,
      "Ġngoáº¡n": 6044,
      "Ġkaraoke": 6045,
      "ĠHá»ıa": 6046,
      "BÄĲ": 6047,
      "nik": 6048,
      "ĠTÃ´ng": 6049,
      "ĠCHDC": 6050,
      "Ġchuá»Ļc": 6051,
      "Ġ1970": 6052,
      "ave": 6053,
      "ĠSol": 6054,
      "Ġtivi": 6055,
      "ĠNad": 6056,
      "ĠmuÃ´n": 6057,
      "osa": 6058,
      "ĠvÃ¹i": 6059,
      "ĠvÃ²i": 6060,
      "Ġdáº»o": 6061,
      "ĠSG": 6062,
      "ium": 6063,
      "ĠKTÄĲT": 6064,
      "ris": 6065,
      "ĠmÃ¢m": 6066,
      "ĠUA": 6067,
      "ĠCR": 6068,
      "ĠGiáº£m": 6069,
      "ĠiOS": 6070,
      "ĠMáº¡ng": 6071,
      "ĠngáºŃm": 6072,
      "ĠdÃª": 6073,
      "ĠSky": 6074,
      "ĠnhÃ£": 6075,
      "ĠÄĲÃ´n": 6076,
      "ĠDie": 6077,
      "oshi": 6078,
      "ĠChá»¯": 6079,
      "dy": 6080,
      "eroin": 6081,
      "Ġnuá»ĳi": 6082,
      "ĠTB": 6083,
      "ric": 6084,
      "ĠAngeles": 6085,
      "national": 6086,
      "ĠSá»Ĳ": 6087,
      "ĠÄĳÃ²": 6088,
      "ĠsÃłnh": 6089,
      "ĠvÆ°á»£ng": 6090,
      "Ġráº¡ch": 6091,
      "Ġxoáº¯n": 6092,
      "Ġlen": 6093,
      "ĠÄĲá»ķi": 6094,
      "ĠIreland": 6095,
      "ĠxÃłi": 6096,
      "SNN": 6097,
      "Ġ1989": 6098,
      "ĠBerlin": 6099,
      "Ġviá»ĩt": 6100,
      "ĠBÃ¡nh": 6101,
      "aser": 6102,
      "Ġgáº§y": 6103,
      "uts": 6104,
      "ĠgiÃ²": 6105,
      "Ġnáº£n": 6106,
      "ĠAnton": 6107,
      "Ġgáº·t": 6108,
      "ĠngÃłng": 6109,
      "ĠMeg": 6110,
      "ĠRes": 6111,
      "ĠAndre": 6112,
      "ance": 6113,
      "ĠhÃŃt": 6114,
      "Ġ).": 6115,
      "ĠrÆ°á»Ľc": 6116,
      "ĠHiá»ĥu": 6117,
      "73": 6118,
      "oom": 6119,
      "Ġxay": 6120,
      "ĠTá»ĳ": 6121,
      "ime": 6122,
      "ĠSá»ĳng": 6123,
      "ĠRá»ĵng": 6124,
      "ĠSev": 6125,
      "ĠdÃło": 6126,
      "ĠVir": 6127,
      "ĠÄĲen": 6128,
      "Ġ125": 6129,
      "ĠBoe": 6130,
      "ĠbÃ¬a": 6131,
      "Ġchá»įi": 6132,
      "?\".": 6133,
      "Ġsá»ıi": 6134,
      "trÃ¡i": 6135,
      "ĠrÃ£": 6136,
      "Ġmuá»Ĺi": 6137,
      "Ġgolf": 6138,
      "ĠKhÃ¡c": 6139,
      "ĠIM": 6140,
      "imes": 6141,
      "Æ¯á»ľ": 6142,
      "Æ¯ÆłNG": 6143,
      "ĠHÃ¡n": 6144,
      "áº½n": 6145,
      "á»¬": 6146,
      "ase": 6147,
      "Ġgiá»¥": 6148,
      "Ãĵ": 6149,
      "ĠChÄĥm": 6150,
      "ĠhÄĥng": 6151,
      "Ġdai": 6152,
      "ĠNet": 6153,
      "Ġgá»ĳm": 6154,
      "ĠNex": 6155,
      "Ġhtt": 6156,
      "ĠÄĳá»±c": 6157,
      "Ġbáº»": 6158,
      "ĠnháºŃm": 6159,
      "ĠYam": 6160,
      "ĠbÃ£": 6161,
      "itz": 6162,
      "ery": 6163,
      "tÄĥng": 6164,
      "enz": 6165,
      "ĠAsh": 6166,
      "ĠphÃł": 6167,
      "ĠVÃ´": 6168,
      "ĠNSND": 6169,
      "Ġthuá»·": 6170,
      "ĠDar": 6171,
      "á»¤C": 6172,
      "ĠCÆ°á»Ŀi": 6173,
      "ĠÃĤn": 6174,
      "ragon": 6175,
      "ĠMoham": 6176,
      "LA": 6177,
      "Ġheroin": 6178,
      "ĠWeb": 6179,
      "Ġ1988": 6180,
      "Ġmá»īm": 6181,
      "NháºŃt": 6182,
      "ĠRoy": 6183,
      "ĠThá»ıa": 6184,
      "oz": 6185,
      "ĠNTM": 6186,
      "ĠFin": 6187,
      "Ġme": 6188,
      "ĠMá»Ŀi": 6189,
      "Ġsáº¥u": 6190,
      "ĠnÃ¡o": 6191,
      "ĠJi": 6192,
      "Ġkiáº¿p": 6193,
      "ĠCHDCND": 6194,
      "ĠÄĳáº£": 6195,
      "áºłI": 6196,
      "ĠCÃ¡m": 6197,
      "ĠChile": 6198,
      "iana": 6199,
      "ĠThÃŃch": 6200,
      "ĠnÃ©": 6201,
      "TE": 6202,
      "ado": 6203,
      "gio": 6204,
      "ĠhÃ¡o": 6205,
      "Ġstr": 6206,
      "Ġphao": 6207,
      "Ġmod": 6208,
      "ĠNhuáºŃn": 6209,
      "62": 6210,
      "ĠFestival": 6211,
      "Ġná»©c": 6212,
      "raph": 6213,
      "ĠhoÃ¡n": 6214,
      "ĠACB": 6215,
      "ĠScot": 6216,
      "ĠNghiÃªm": 6217,
      "ĠLÃ¢u": 6218,
      "ont": 6219,
      "Ġbá»Ľi": 6220,
      "ĠThomas": 6221,
      "ĠcÃ´i": 6222,
      "Ġkhá»Ń": 6223,
      "ilk": 6224,
      "Ġkhiáº¿m": 6225,
      "ĠTan": 6226,
      "NamNet": 6227,
      "NV": 6228,
      "ĠCÃ¡nh": 6229,
      "itcoin": 6230,
      "ĠKm": 6231,
      "64": 6232,
      "ĠLá»¯": 6233,
      "atia": 6234,
      "ĠTÃ¡o": 6235,
      "Ġá»ĵ": 6236,
      "ĠHun": 6237,
      "ĠÃ¡": 6238,
      "ĠGaal": 6239,
      "ĠNáº±m": 6240,
      "Ġnáº¡o": 6241,
      "Ġrá»¥ng": 6242,
      "ĠInst": 6243,
      "ĠsÆ°ng": 6244,
      "Ġhá»ĩt": 6245,
      "sá»ĳ": 6246,
      "ĠShar": 6247,
      "ĠAbd": 6248,
      "uay": 6249,
      "ĠxÃło": 6250,
      "aha": 6251,
      "ĠDj": 6252,
      "Ġchá»Ľp": 6253,
      "ĠÄĲá»ĺ": 6254,
      "ster": 6255,
      "ĠÄĲá»įc": 6256,
      "ĠUSS": 6257,
      "Ġlá»¥y": 6258,
      "ĠHÃ²n": 6259,
      "ĠÄĳu": 6260,
      "Nghá»ĩ": 6261,
      "oáº¡n": 6262,
      "mund": 6263,
      "ogan": 6264,
      "ĠAmaz": 6265,
      "ĠLÃ¢n": 6266,
      "Ġquá»µ": 6267,
      "ÃĮNH": 6268,
      "ĠJac": 6269,
      "Huáº¿": 6270,
      "ĠchÃ³t": 6271,
      "ĠrÆ°á»¡i": 6272,
      "ito": 6273,
      "Ġuá»ĳn": 6274,
      "arez": 6275,
      "ĠFab": 6276,
      "ĠChÃ¹a": 6277,
      "ĠInternational": 6278,
      "Ġ91": 6279,
      "Ġlog": 6280,
      "ĠCÃłng": 6281,
      "ĠHi": 6282,
      "Ġáº¡t": 6283,
      "Ġrá»ķ": 6284,
      "ĠHenry": 6285,
      "Ġxá»ķ": 6286,
      "Ġxáº¥p": 6287,
      "ĠVo": 6288,
      "ĠBrun": 6289,
      "ĠTour": 6290,
      "ĠThá»Ń": 6291,
      "ĠTD": 6292,
      "ĠWat": 6293,
      "ĠtrÃªu": 6294,
      "Ġbe": 6295,
      "ĠÄĳá»ĳn": 6296,
      "ĠKurd": 6297,
      "gr": 6298,
      "Ġbá»ĭt": 6299,
      "Ġsá»Ŀ": 6300,
      "kel": 6301,
      "ĠLand": 6302,
      "Ġ273": 6303,
      "ĠComp": 6304,
      ":.": 6305,
      "Ġbáº¡": 6306,
      "Ġser": 6307,
      "ĠPu": 6308,
      "57": 6309,
      "ĠÄĲÃ¡m": 6310,
      "ĠDA": 6311,
      "ĠPort": 6312,
      "rig": 6313,
      "ĠCrist": 6314,
      "den": 6315,
      "ĠNay": 6316,
      "ĠNav": 6317,
      "Ġpháº«n": 6318,
      "Iá»ĨN": 6319,
      "ĠMÆ°a": 6320,
      "ĠSand": 6321,
      "Ġ=": 6322,
      "ĠVáº¥p": 6323,
      "ĠNik": 6324,
      "ĠTCT": 6325,
      "ĠTuÃ¢n": 6326,
      "ĠCÃ´n": 6327,
      "lu": 6328,
      "ĠTrafford": 6329,
      "ĠCosta": 6330,
      "Ġáº§m": 6331,
      "ĠGiáº¿t": 6332,
      "ĠbÃ©n": 6333,
      "ĠsÃ¢m": 6334,
      "elli": 6335,
      "ife": 6336,
      "gin": 6337,
      "ĠÄĲiá»ĩp": 6338,
      "Ġ1986": 6339,
      "ĠnhÄĥn": 6340,
      "ĠnhÃ¡i": 6341,
      "kov": 6342,
      ";,": 6343,
      "ign": 6344,
      "Ġ93": 6345,
      "Ġhá»©c": 6346,
      "ĠBÃ¡t": 6347,
      "Ġluá»Ļc": 6348,
      "ĠPlay": 6349,
      "ĠCen": 6350,
      "ĠBL": 6351,
      "ĠThuá»ĳc": 6352,
      "acc": 6353,
      "ĠtrÃ¨o": 6354,
      "ĠBlu": 6355,
      "pt": 6356,
      "ĠÄĲáº¿": 6357,
      "ĠGÄĲ": 6358,
      "hy": 6359,
      "ĠLÅ©": 6360,
      "ĠUkraina": 6361,
      "Ġtoa": 6362,
      "ĠWon": 6363,
      "Ġtáº£n": 6364,
      "ĠNgÅ©": 6365,
      "dinh": 6366,
      "':": 6367,
      "ĠGÃ£": 6368,
      "orm": 6369,
      "ĠBT": 6370,
      "ĠÃģi": 6371,
      "ĠBoeing": 6372,
      "lus": 6373,
      "ĠCáº£i": 6374,
      "field": 6375,
      "ora": 6376,
      "ĠliÃªng": 6377,
      "áº¤T": 6378,
      "ĠSteve": 6379,
      "Ġtháº£y": 6380,
      "ĠLov": 6381,
      "98": 6382,
      "ĠgÃ³t": 6383,
      "ardo": 6384,
      "Ãµm": 6385,
      "Ġthá»ı": 6386,
      ",\"": 6387,
      "Ġtháº¡c": 6388,
      "bert": 6389,
      "Ġdang": 6390,
      "ika": 6391,
      "ĠÆ°á»Ľp": 6392,
      "ĠNá»Ĺi": 6393,
      "kin": 6394,
      "áº¾T": 6395,
      "ĠCharles": 6396,
      "ĠNob": 6397,
      "awa": 6398,
      "Ġráº§m": 6399,
      "Ġgá»«ng": 6400,
      "cho": 6401,
      "ude": 6402,
      "ĠSC": 6403,
      "ĠÄĲáº¥y": 6404,
      "Ġ115": 6405,
      "ole": 6406,
      "ĠTex": 6407,
      "ON": 6408,
      "ĠÃ¡ch": 6409,
      "ixel": 6410,
      "Ġkhan": 6411,
      "gen": 6412,
      "ĠCá»±c": 6413,
      "ĠMary": 6414,
      "Ġnhá»ĳt": 6415,
      "aptop": 6416,
      "Ġrock": 6417,
      "FC": 6418,
      "ĠtÃł": 6419,
      "ĠTaylor": 6420,
      "ĠÃºng": 6421,
      "ĠSáº¯p": 6422,
      "ĠNSNN": 6423,
      "ĠFeder": 6424,
      "Ġnhuá»Ļm": 6425,
      "ĠÄĲK": 6426,
      "ĠNap": 6427,
      "ĠHáº¿t": 6428,
      "ĠCÃĶNG": 6429,
      "MA": 6430,
      "ĠgiÃ£": 6431,
      "Ġthá»ĳt": 6432,
      "ĠbÃºa": 6433,
      "ĠkÃ¬m": 6434,
      "Ġgiá»¥c": 6435,
      "ĠBá»ķ": 6436,
      "ĠgiÃ¡ng": 6437,
      "ĠRock": 6438,
      "ĠDiá»ĩn": 6439,
      "Ġthá»¥c": 6440,
      "ifer": 6441,
      "Ġnguá»Ļi": 6442,
      "Ãºm": 6443,
      "ÃįNH": 6444,
      "NESCO": 6445,
      "Ġváº¯t": 6446,
      "ĠnhÆ°á»£c": 6447,
      "Ġset": 6448,
      "ĠtrÃ³i": 6449,
      "ĠYemen": 6450,
      "ĠnhÃ´m": 6451,
      "ĠFBI": 6452,
      "ĠbÃº": 6453,
      "ĠTTg": 6454,
      "Ńng": 6455,
      "ami": 6456,
      "ĠDub": 6457,
      "áº¨": 6458,
      "ĠÄĲáº©y": 6459,
      "ĠTrÃłng": 6460,
      "Tube": 6461,
      "ĠHP": 6462,
      "Ġngáº¯t": 6463,
      "244": 6464,
      "á»£p": 6465,
      "ĠMike": 6466,
      "ĠÃļt": 6467,
      "ĠTrÃ´ng": 6468,
      "Ġ\".": 6469,
      "chÆ°a": 6470,
      "itch": 6471,
      "ĠKing": 6472,
      "agen": 6473,
      "pa": 6474,
      "ĠBinh": 6475,
      "ĠmÃ£nh": 6476,
      "Ġ1987": 6477,
      "Ġtiá»ĩt": 6478,
      "ĠLuc": 6479,
      "ĠMcC": 6480,
      "ĠIntel": 6481,
      "Ġngá»Ńa": 6482,
      "Ġná»ĥ": 6483,
      "ĠmÆ°Æ¡ng": 6484,
      "ĠTráº¡i": 6485,
      "obal": 6486,
      "ĠBob": 6487,
      "ĠFar": 6488,
      "Ġnhá»ĭ": 6489,
      "ĠChan": 6490,
      "oss": 6491,
      "Viá»ĩt": 6492,
      "ĠthÃ²i": 6493,
      "ĠLav": 6494,
      "ĠDinh": 6495,
      "ĠSel": 6496,
      "á»£n": 6497,
      "ĠJam": 6498,
      "ĠcÃło": 6499,
      "ĠMÃ¢y": 6500,
      "ĠTrá»¥": 6501,
      "Ġblog": 6502,
      "Ġkeo": 6503,
      "Ġ1985": 6504,
      "ĠmÃŃ": 6505,
      "ĠMaz": 6506,
      "ĠQuáº§n": 6507,
      "ĠUtd": 6508,
      "ĠYouTube": 6509,
      "ĠnÃ³c": 6510,
      "Ġtá»ĳp": 6511,
      "ĠNÃło": 6512,
      "Ġláº©n": 6513,
      "Ġngháº¹n": 6514,
      "ĠChiá»ĥu": 6515,
      "ĠDes": 6516,
      "ĠchÆ°ng": 6517,
      "ĠRach": 6518,
      "ĠHot": 6519,
      "Ġkhá»ıa": 6520,
      "ĠChá»įn": 6521,
      "Náº¿u": 6522,
      "ĠTÃ¹y": 6523,
      "ĠXÃª": 6524,
      "ĠIl": 6525,
      "ĠhÆ°ng": 6526,
      "Ġthoáº£": 6527,
      "Ġcá»«u": 6528,
      "ĠVHTT": 6529,
      "eron": 6530,
      "ĠNigeria": 6531,
      "ĠTMCP": 6532,
      "ĠCá»©u": 6533,
      "Ġmá»ĳt": 6534,
      "ĠkiÃªu": 6535,
      "Ġmini": 6536,
      "ĠbÃºn": 6537,
      "ble": 6538,
      "KhÃ´ng": 6539,
      "Ġtáº¡t": 6540,
      "ĠhÃ´ng": 6541,
      "...,": 6542,
      "ĠCarol": 6543,
      "ĠMoon": 6544,
      "Ġrá»ĵ": 6545,
      "ĠCQ": 6546,
      "56": 6547,
      "Ġbá»į": 6548,
      "ĠJackson": 6549,
      "Ġngáº¡t": 6550,
      "ĠModel": 6551,
      "ĠRAM": 6552,
      "Ġ450": 6553,
      "ĠkiÃªng": 6554,
      "ĠSec": 6555,
      "oC": 6556,
      "ĠvÃŃt": 6557,
      "ĠbÃºp": 6558,
      "rey": 6559,
      "ĠVang": 6560,
      "ĠnÃ³n": 6561,
      "ĠÄĲÃ¡p": 6562,
      "Ġrá»Ĺi": 6563,
      "Ãµng": 6564,
      "83": 6565,
      "ĠtrÃ¹": 6566,
      "ĠMah": 6567,
      "ĠGreen": 6568,
      "ĠBul": 6569,
      "opa": 6570,
      "ĠJones": 6571,
      "ĠTáº¡m": 6572,
      "ĠKia": 6573,
      "ĠOli": 6574,
      "inhphu": 6575,
      "Iá»Ģ": 6576,
      "ican": 6577,
      "ĠTTCK": 6578,
      "ĠHáº£o": 6579,
      "Ġnhá»§": 6580,
      "Ġ1960": 6581,
      "ĠAmazon": 6582,
      "92": 6583,
      "MP": 6584,
      "uri": 6585,
      "ĠráºŃp": 6586,
      "74": 6587,
      "ĠGe": 6588,
      "ĠDNNN": 6589,
      "ÃĢI": 6590,
      "ĠHTC": 6591,
      "Ġngháº½n": 6592,
      "ĠShow": 6593,
      "Ġbá»ī": 6594,
      "mua": 6595,
      "Ġsá»Łi": 6596,
      "ĠCáº§m": 6597,
      "ernand": 6598,
      "out": 6599,
      "Ġngáº£": 6600,
      "ĠHÆ°á»Ŀng": 6601,
      "Ġtháº¡o": 6602,
      "ĠÄĲá»ĩ": 6603,
      "ĠTráº£i": 6604,
      "ĠUNESCO": 6605,
      "ĠÄĳÃłng": 6606,
      "ather": 6607,
      "pháº£i": 6608,
      "á»¨C": 6609,
      "86": 6610,
      "ĠPhÃ¡o": 6611,
      "ASA": 6612,
      "Ġbik": 6613,
      "ĠTá»ĭnh": 6614,
      "Ġdáº¥y": 6615,
      "ĠPháº£n": 6616,
      "ĠMá»ĳi": 6617,
      "51": 6618,
      "ĠXa": 6619,
      "ĠDiego": 6620,
      "ĠYe": 6621,
      "ĠGB": 6622,
      "ĠForm": 6623,
      "ĠMÃłu": 6624,
      "oan": 6625,
      "ĠOai": 6626,
      "iF": 6627,
      "ĠphÃłn": 6628,
      "imex": 6629,
      "Ġlá»ģu": 6630,
      "ĠHá»ıi": 6631,
      "tein": 6632,
      "ĠNgá»¯": 6633,
      "Ġwww": 6634,
      "ĠSom": 6635,
      "ĠAssad": 6636,
      "ĠDaniel": 6637,
      "ĠSX": 6638,
      "ĠHel": 6639,
      "ĠGad": 6640,
      "ĠmÃŃt": 6641,
      "anc": 6642,
      "ĠMáº¡c": 6643,
      "ĠGiadinh": 6644,
      "ĠEli": 6645,
      "Ġ170": 6646,
      "adi": 6647,
      "Chinhphu": 6648,
      "ĠKÃŃnh": 6649,
      "ĠÄĲÄĥk": 6650,
      "ES": 6651,
      "Ġ97": 6652,
      "ĠGra": 6653,
      "kaku": 6654,
      "ĠgÃ²": 6655,
      "ĠÄĳáº·ng": 6656,
      "ĠvÃ¡": 6657,
      "agram": 6658,
      "ĠLS": 6659,
      "tis": 6660,
      "ĠBil": 6661,
      "ĠlÃºng": 6662,
      "ĠTX": 6663,
      "ĠAleppo": 6664,
      "ĠHillary": 6665,
      "ĠNiá»ģm": 6666,
      "rick": 6667,
      "ĠcÃły": 6668,
      "ĠLHP": 6669,
      "Ġláº§u": 6670,
      "eam": 6671,
      "ĠEa": 6672,
      "ange": 6673,
      "ĠKhÃ¡n": 6674,
      "ĠEmily": 6675,
      "Ġvá»¥n": 6676,
      "ette": 6677,
      "ĠJoe": 6678,
      "ĠScotland": 6679,
      "aga": 6680,
      "ĠBloom": 6681,
      "Ġ),": 6682,
      "ĠSA": 6683,
      "Trong": 6684,
      "Ġhit": 6685,
      "ĠTÃ³c": 6686,
      "ĠphÃ¡c": 6687,
      "ĠXu": 6688,
      "Ġrá»Ĺng": 6689,
      "ĠCIA": 6690,
      "Ġdáº¡t": 6691,
      "ĠcÆ°a": 6692,
      "ĠChina": 6693,
      "á»¡i": 6694,
      "ĠUá»ĳng": 6695,
      "Ġnhá»ĵi": 6696,
      "ĠthÃŃnh": 6697,
      "Ġnáº¿n": 6698,
      "ĠchÃ¹m": 6699,
      "Ġquá»³": 6700,
      "ĠAlexander": 6701,
      "ĠlÆ°á»£n": 6702,
      "Ġthon": 6703,
      "ĠVn": 6704,
      "ĠRoma": 6705,
      "cÆ¡": 6706,
      "ishi": 6707,
      "Wh": 6708,
      "Ġtro": 6709,
      "ĠNghiá»ĩp": 6710,
      "cean": 6711,
      "ĠPháº¥n": 6712,
      "Ġmiá»ĩt": 6713,
      "ĠhoÃł": 6714,
      "ĠgiÃ²n": 6715,
      "ÃŃu": 6716,
      "Ġkhinh": 6717,
      "ĠTs": 6718,
      "ĠGiáº£": 6719,
      "ĠCroatia": 6720,
      "ĠHuáº¥n": 6721,
      "ĠCTCK": 6722,
      "ĠCD": 6723,
      "undai": 6724,
      "XB": 6725,
      "ĠGT": 6726,
      "ĠChris": 6727,
      "esel": 6728,
      "ĠLÃ´": 6729,
      "ĠQuÃ¡ch": 6730,
      "ÄĲH": 6731,
      "ello": 6732,
      "ĠdÃ¨": 6733,
      "ĠThá»Ľi": 6734,
      "Ġquáº¥n": 6735,
      "Ġnhá»ĭn": 6736,
      "ĠÆ¯u": 6737,
      "ĠTrÃ¢n": 6738,
      "ĠZh": 6739,
      "Ġxá»ĭt": 6740,
      "itan": 6741,
      "ĠHungary": 6742,
      "Ġbá»©t": 6743,
      "ĠSaigon": 6744,
      "ĠBrad": 6745,
      "ĠAdam": 6746,
      "Ġ108": 6747,
      "Nhá»¯ng": 6748,
      "Ġvs": 6749,
      "ĠDamas": 6750,
      "ĠKa": 6751,
      "ĠÄĳá»Ŀ": 6752,
      "mit": 6753,
      "ĠHyundai": 6754,
      "ĠLeon": 6755,
      "eting": 6756,
      "ĠÄĲáº·t": 6757,
      "ĠNK": 6758,
      "ĠNÄĲT": 6759,
      "ĠCast": 6760,
      "ĠDom": 6761,
      "ĠxÃŃt": 6762,
      "ĠRad": 6763,
      "ĠJennifer": 6764,
      "ĠLED": 6765,
      "Ġlaptop": 6766,
      "ĠCHÃįNH": 6767,
      "mÃ£": 6768,
      "!\".": 6769,
      "Ġteen": 6770,
      "ĠDoÃ£n": 6771,
      "ĠbÃªnh": 6772,
      "Ġ1984": 6773,
      "HQ": 6774,
      "ĠFox": 6775,
      "tan": 6776,
      "Ġcá»¥t": 6777,
      "ĠJustin": 6778,
      "Ġbáº§y": 6779,
      "ĠFLC": 6780,
      "AD": 6781,
      "Ġkhoanh": 6782,
      "ĠVÆ°á»£ng": 6783,
      "ĠMáº¥t": 6784,
      "ider": 6785,
      "Ġ105": 6786,
      "ĠAp": 6787,
      "ĠChá»ĳng": 6788,
      "Ġcháº£o": 6789,
      "ĠÄĲáºŃu": 6790,
      "ĠAndr": 6791,
      "ĠBÃłng": 6792,
      "aint": 6793,
      "ĠDÆ°á»Ŀng": 6794,
      "ĠPT": 6795,
      "náº¿u": 6796,
      "aeda": 6797,
      "Ġbá»įt": 6798,
      "Ġmá»ĵm": 6799,
      "ĠBá»Ŀ": 6800,
      "aro": 6801,
      "Ġthen": 6802,
      ";)": 6803,
      "ĠNGUY": 6804,
      "ĠHá»¡i": 6805,
      "ĠAsia": 6806,
      "ĠNÄĤ": 6807,
      "BV": 6808,
      "ĠJean": 6809,
      "Ġhttp": 6810,
      "ĠlÄĥm": 6811,
      "Ġchá»ĳc": 6812,
      "ÄĲá»ĵng": 6813,
      "ĠÄĲáº¥u": 6814,
      "ĠNoel": 6815,
      "ĠBas": 6816,
      "ray": 6817,
      "ÄĳÃ£": 6818,
      "ml": 6819,
      "aba": 6820,
      "ĠTO": 6821,
      "Ġ220": 6822,
      "ream": 6823,
      "ĠMid": 6824,
      "ĠLÃªn": 6825,
      "ĠHarv": 6826,
      "ĠBale": 6827,
      "ĠSteph": 6828,
      "ĠSuarez": 6829,
      "ĠMáº¯t": 6830,
      "ĠÃĬ": 6831,
      "224": 6832,
      "ĠRachel": 6833,
      "acombank": 6834,
      "EM": 6835,
      "ribank": 6836,
      "ĠChá»Ŀ": 6837,
      "ĠHal": 6838,
      "ĠTexas": 6839,
      "ĠxÃ¡o": 6840,
      "iola": 6841,
      "Ġac": 6842,
      "ĠLen": 6843,
      "Ġby": 6844,
      "ĠGiÃ´": 6845,
      "ĠCharlie": 6846,
      "trÃº": 6847,
      "ĠSum": 6848,
      "ato": 6849,
      "EP": 6850,
      "Ġve": 6851,
      "61": 6852,
      "ĠSin": 6853,
      "cÃ´ng": 6854,
      "sá»Ńa": 6855,
      "Media": 6856,
      "cher": 6857,
      "lec": 6858,
      "ĠHÃ¨": 6859,
      "NK": 6860,
      "NQ": 6861,
      "ahoo": 6862,
      "ngá»¥": 6863,
      ")...": 6864,
      "ĠDáº§n": 6865,
      "ĠLiá»ĩt": 6866,
      "urn": 6867,
      "ĠVÄ©": 6868,
      "chiáº¿m": 6869,
      "mad": 6870,
      "84": 6871,
      "Ġtoan": 6872,
      "egas": 6873,
      "ĠDamascus": 6874,
      "ĠtÃ©": 6875,
      "ĠnhÃło": 6876,
      "ĠWin": 6877,
      "EF": 6878,
      "Ġ(+": 6879,
      "iban": 6880,
      "news": 6881,
      "ason": 6882,
      "BA": 6883,
      "ĠNgá»ĵi": 6884,
      "ets": 6885,
      "acker": 6886,
      "ĠRio": 6887,
      "ĠHÃĢNH": 6888,
      "ĠtrÃºt": 6889,
      "isa": 6890,
      "ĠPVN": 6891,
      "ĠphiÃªu": 6892,
      "Ġráº¡n": 6893,
      "Ġráº£nh": 6894,
      "ĠNgá»į": 6895,
      "hat": 6896,
      "ĠBÃ´ng": 6897,
      "utnik": 6898,
      "ĠKiá»ĥu": 6899,
      "ĠLÃ¡i": 6900,
      "ĠVai": 6901,
      "mann": 6902,
      "2006": 6903,
      "ĠTeh": 6904,
      "ĠÄĲÆ°Æ¡ng": 6905,
      "ĠAM": 6906,
      "ĠnhÃ©t": 6907,
      "ĠngÃ¡n": 6908,
      "gy": 6909,
      "ĠJuli": 6910,
      "ĠMosk": 6911,
      "ĠTang": 6912,
      "ĠÄĲam": 6913,
      "ĠDong": 6914,
      "Ġruá»ĵi": 6915,
      "Ġkáº¹p": 6916,
      "ĠCÆ¡n": 6917,
      "HO": 6918,
      "bus": 6919,
      "Æ¯á»ļC": 6920,
      "ĠLim": 6921,
      "Ġvuá»ĳt": 6922,
      "Ġváº«y": 6923,
      "Ġis": 6924,
      "Ġlá»«ng": 6925,
      "ĠXÃ¡": 6926,
      "CD": 6927,
      "ortmund": 6928,
      "iver": 6929,
      "ĠANTT": 6930,
      "Ġyáº¿n": 6931,
      "ĠWay": 6932,
      "ĠmiÃªn": 6933,
      "Ġnguyá»ģn": 6934,
      "ĠPhu": 6935,
      "ĠPor": 6936,
      "ĠThuyá»ģn": 6937,
      "ĠKháº£o": 6938,
      "TW": 6939,
      "Ġxáº£o": 6940,
      "Ġá»Ķ": 6941,
      "ĠGIA": 6942,
      "Ġká»µ": 6943,
      "ĠCristiano": 6944,
      "ĠBuá»Ļc": 6945,
      "ĠCNVC": 6946,
      "icester": 6947,
      "ĠToÃł": 6948,
      "ĠFlorida": 6949,
      "Ġbikini": 6950,
      "Ġmiá»ĩn": 6951,
      "ĠRodrig": 6952,
      "edan": 6953,
      "Ãĥ": 6954,
      "ori": 6955,
      "ĠGuardiola": 6956,
      "fa": 6957,
      "Ġsáº¯n": 6958,
      "ĠHáº¡m": 6959,
      "ĠGÆ°Æ¡ng": 6960,
      "ĠKaz": 6961,
      "eva": 6962,
      "ĠCanh": 6963,
      "ema": 6964,
      "ĠMont": 6965,
      "ĠDV": 6966,
      "ĠsÃ²ng": 6967,
      "ĠNadal": 6968,
      "ĠPhá»¥c": 6969,
      "ĠTáº¥m": 6970,
      "oster": 6971,
      "aks": 6972,
      "ĠRu": 6973,
      "Ġlá»±u": 6974,
      "ĠDem": 6975,
      "ĠÄĲáº£m": 6976,
      "rown": 6977,
      "ĠVCK": 6978,
      "ĠLeo": 6979,
      "Ġmá»³": 6980,
      "ĠFre": 6981,
      "ĠBin": 6982,
      "Ġtrá»įt": 6983,
      "ĠmÃ©p": 6984,
      "Ġ(-": 6985,
      "ĠthÃ¢u": 6986,
      "ĠThuá»Ļt": 6987,
      "87": 6988,
      "Ġváº§y": 6989,
      "ĠDáº«u": 6990,
      "ĠsÃło": 6991,
      "ĠVit": 6992,
      "Ġáº¤y": 6993,
      "Ġthá»ĳn": 6994,
      "rahim": 6995,
      "Ġtá»īa": 6996,
      "ĠMerkel": 6997,
      "ONG": 6998,
      "tá»ķng": 6999,
      "ĠVinam": 7000,
      "ĠJohnson": 7001,
      "ĠTaliban": 7002,
      "CÃ¡c": 7003,
      "ĠTrÆ°a": 7004,
      "ĠTuyá»ĩt": 7005,
      "Ġ101": 7006,
      "ĠGetty": 7007,
      "ĠInstagram": 7008,
      "ĠLÃĿ": 7009,
      "ĠÄĳÃºp": 7010,
      "ĠVáº»": 7011,
      "Ġcáº©m": 7012,
      "onia": 7013,
      "ĠNTK": 7014,
      "ĠWi": 7015,
      "ĠRog": 7016,
      "ĠDortmund": 7017,
      "ĠXÆ°Æ¡ng": 7018,
      "BTC": 7019,
      "EN": 7020,
      "ĠBuff": 7021,
      "tron": 7022,
      "brid": 7023,
      "ĠngÆ¡": 7024,
      "ĠTrá»«": 7025,
      "ĠSputnik": 7026,
      "Ġáº©u": 7027,
      "ĠTrÃ²": 7028,
      "ĠSÆ¡": 7029,
      "Ġnang": 7030,
      "ĠHoan": 7031,
      "XD": 7032,
      "Ġgiáº·c": 7033,
      "ĠkÃ©t": 7034,
      "ĠWales": 7035,
      "ĠLuis": 7036,
      "vo": 7037,
      "ĠSur": 7038,
      "Ġ1979": 7039,
      "ĠVu": 7040,
      "ĠOcean": 7041,
      "under": 7042,
      "ĠcÃµi": 7043,
      "ĠHOSE": 7044,
      "ĠMÃ³ng": 7045,
      "táº¥n": 7046,
      "ĠThá»ĭt": 7047,
      "ĠEb": 7048,
      "ĠMoskva": 7049,
      "ms": 7050,
      "Ġsáº¹o": 7051,
      "ĠLeicester": 7052,
      "Ġmic": 7053,
      "ati": 7054,
      "cast": 7055,
      "ĠvÃ´i": 7056,
      "ĠVui": 7057,
      "ĠÄĲÃ³ng": 7058,
      "Ġbin": 7059,
      "ĠTá»©c": 7060,
      "ĠSant": 7061,
      "Ġ94": 7062,
      "ÄĲS": 7063,
      "ĠNghÄ©": 7064,
      "ĠRay": 7065,
      "lock": 7066,
      "Ġáº¥u": 7067,
      "ĠSÃ©c": 7068,
      "ĠtrÃ¡": 7069,
      "ĠgÃ¢n": 7070,
      "rop": 7071,
      "Ģĭ": 7072,
      "ĠCÃģC": 7073,
      "ĠPle": 7074,
      "Ġáº£": 7075,
      "The": 7076,
      "ĠFerg": 7077,
      "ivers": 7078,
      "ever": 7079,
      "ĠBR": 7080,
      "ĠAth": 7081,
      "ĠKal": 7082,
      "rin": 7083,
      "ĠFal": 7084,
      "ĠUng": 7085,
      "ĠGlobal": 7086,
      "ĠSuz": 7087,
      "ĠxÃŃu": 7088,
      "ĠBCH": 7089,
      "agh": 7090,
      "Ġthung": 7091,
      "ĠEURO": 7092,
      "ĠCÃºc": 7093,
      "ĠBrid": 7094,
      "ĠAward": 7095,
      "ĠKel": 7096,
      "Ġsáº§u": 7097,
      "ĠJav": 7098,
      "VT": 7099,
      "cÃ´": 7100,
      "ĠCy": 7101,
      "ÄĲTB": 7102,
      "ux": 7103,
      "Ġtrá»ĩ": 7104,
      "ĠGiu": 7105,
      "ĠLá»ĩnh": 7106,
      "Ġtáº¡c": 7107,
      "ĠSacombank": 7108,
      "ĠSerge": 7109,
      "Ġtrá»ķ": 7110,
      "ĠAI": 7111,
      "Ġ1983": 7112,
      "ĠsÃ³i": 7113,
      "Vn": 7114,
      "ĠFerr": 7115,
      "etsk": 7116,
      "ĠEverton": 7117,
      "ĠsÆ°a": 7118,
      "Ġphá»Ł": 7119,
      "ĠPog": 7120,
      "ĠIbrahim": 7121,
      "ĠNá»£": 7122,
      "Ġmuá»Ĺng": 7123,
      "Ġsim": 7124,
      "gia": 7125,
      "act": 7126,
      "ope": 7127,
      "ĠHall": 7128,
      "................................": 7129,
      "Æ°á»Ŀm": 7130,
      "ĠAgribank": 7131,
      "Ġquáº·ng": 7132,
      "dor": 7133,
      "......": 7134,
      "ĠTehran": 7135,
      "Ġbá»«a": 7136,
      "ĠAudi": 7137,
      "Ġláº§y": 7138,
      "82": 7139,
      "Ã²e": 7140,
      "ison": 7141,
      "ĠHá»Ļ": 7142,
      "ody": 7143,
      "Ġnhuyá»ħn": 7144,
      "Ġthuá»Ł": 7145,
      "ÄĳÆ°á»Ŀng": 7146,
      "ĠFi": 7147,
      "nhÆ°": 7148,
      "KTS": 7149,
      "ific": 7150,
      "ĠngÃ³": 7151,
      "med": 7152,
      "Ġnhá»ķ": 7153,
      "dam": 7154,
      "ĠBir": 7155,
      "Ġngá»©a": 7156,
      "ĠÄĳiáº¿u": 7157,
      "Ġsanh": 7158,
      "azz": 7159,
      "imbank": 7160,
      "Ġngoáº·t": 7161,
      "¯a": 7162,
      "dafi": 7163,
      "Ġliá»ħu": 7164,
      "ĠMotor": 7165,
      "ĠHit": 7166,
      "Ãļ": 7167,
      "rom": 7168,
      "oke": 7169,
      "ĠLion": 7170,
      "ĠTIN": 7171,
      "DÃ¢n": 7172,
      "Ġngá»¥y": 7173,
      "ĠsÃ´": 7174,
      "rian": 7175,
      "ĠLÃ£ng": 7176,
      "ĠMazda": 7177,
      "ĠSáº¯c": 7178,
      "ĠSP": 7179,
      "encia": 7180,
      "ĠDáº¥u": 7181,
      "ĠVPF": 7182,
      "red": 7183,
      "ĠLar": 7184,
      "ĠDáºŃu": 7185,
      "97": 7186,
      "ĠthÃł": 7187,
      "ĠLiá»ħu": 7188,
      "ĠDubai": 7189,
      "ĠmÃ©o": 7190,
      "MC": 7191,
      "Ġquáº¥t": 7192,
      "In": 7193,
      "ĠsÆ°á»Łi": 7194,
      "ĠEnter": 7195,
      "á»°C": 7196,
      "ĠArab": 7197,
      "ĠVÆ°á»£t": 7198,
      "ĠLÃ¡": 7199,
      "ĠFederer": 7200,
      "ĠNGÃĢ": 7201,
      "ĠSmith": 7202,
      "ĠlÃ³c": 7203,
      "phÃºt": 7204,
      "ĠVoice": 7205,
      "ĠCatal": 7206,
      "ĠrÆ¡": 7207,
      "ĠÄĳao": 7208,
      "ĠMP": 7209,
      "ĠPac": 7210,
      "Ġsáº¥y": 7211,
      "ĠASIA": 7212,
      "ĠUSB": 7213,
      "okovic": 7214,
      "shi": 7215,
      "Ġki": 7216,
      "ĠHari": 7217,
      "Ġ>>>": 7218,
      "ĠTuyá»ģn": 7219,
      "ĠDow": 7220,
      "ĠkhÄĥng": 7221,
      "ĠBon": 7222,
      "ĠKrÃ´ng": 7223,
      "Ġtráº·c": 7224,
      "uson": 7225,
      "Ġghe": 7226,
      "ĠvÃ¡ng": 7227,
      "Ġ1972": 7228,
      "Ġuá»·": 7229,
      "Ġray": 7230,
      "ĠKev": 7231,
      "ĠSav": 7232,
      "CÃ³": 7233,
      "ĠChÃ¡y": 7234,
      "ĠEng": 7235,
      "ĠGá»įi": 7236,
      "ĠSE": 7237,
      "Ġvacc": 7238,
      "ĠCuá»ĳn": 7239,
      "ĠrÃ³t": 7240,
      "ĠSuá»ĳi": 7241,
      "ĠWill": 7242,
      "Ġhá»Ŀ": 7243,
      "Ġ360": 7244,
      "nguyÃªn": 7245,
      "ĠDonetsk": 7246,
      "Ġle": 7247,
      "ĠpháºŃt": 7248,
      "khá»§ng": 7249,
      "ĠCá»¥m": 7250,
      "áº¬P": 7251,
      "ĠXIII": 7252,
      "Ġit": 7253,
      "iness": 7254,
      "ĠFormosa": 7255,
      "ĠvÃ£n": 7256,
      "IT": 7257,
      "ĠGaddafi": 7258,
      "ĠCel": 7259,
      "ĠNXB": 7260,
      "ĠhÃ³c": 7261,
      "ĠDáº¡": 7262,
      "Ġviá»ģn": 7263,
      "CL": 7264,
      "Con": 7265,
      "Ġlay": 7266,
      "ĠVá»Ĺ": 7267,
      "Ġxá»Ļn": 7268,
      "ĠPhÃŃ": 7269,
      "ĠNÄĤM": 7270,
      "ĠDjokovic": 7271,
      "vin": 7272,
      "ĠDá»±a": 7273,
      "ĠGor": 7274,
      "Ġlogo": 7275,
      "ovo": 7276,
      "Ġlanh": 7277,
      "ĠSanch": 7278,
      "ĠJol": 7279,
      "ĠTer": 7280,
      "ĠTrÃ¡nh": 7281,
      "Ġlá»Ńng": 7282,
      "ĠKerry": 7283,
      "ĠChÃł": 7284,
      "ĠLuáºŃn": 7285,
      "Ġz": 7286,
      "ĠTháº¯m": 7287,
      "ĠBitcoin": 7288,
      "Ġkhoáº»": 7289,
      "ĠBloomberg": 7290,
      "wan": 7291,
      "oko": 7292,
      "ĠKÃªnh": 7293,
      "Ġje": 7294,
      "Ġmá»§": 7295,
      "ĠchÃŃch": 7296,
      "ĠTá»Ļi": 7297,
      "ĠTuáº¥t": 7298,
      "ĠÆ°ng": 7299,
      "ĠAlice": 7300,
      "Ġnghiá»ģn": 7301,
      "ĠSung": 7302,
      "ĠGab": 7303,
      "sus": 7304,
      "Ġnáº¿m": 7305,
      "ĠArt": 7306,
      "oga": 7307,
      "inet": 7308,
      "ĠQuay": 7309,
      "á»ķn": 7310,
      "ĠMusic": 7311,
      "Ġá»ıi": 7312,
      "ĠrÆ¡m": 7313,
      "ĠKrem": 7314,
      "ĠÆ¡": 7315,
      "gg": 7316,
      "iger": 7317,
      "ĠYang": 7318,
      "IN": 7319,
      "chá»§": 7320,
      "ĠFerguson": 7321,
      "ĠTrÃ£i": 7322,
      "aud": 7323,
      "ĠJae": 7324,
      "ĠvÆ¡": 7325,
      "Ġá»©": 7326,
      "ĠTrans": 7327,
      "ĠRon": 7328,
      "zz": 7329,
      "ĠXV": 7330,
      "AF": 7331,
      "ĠPogba": 7332,
      "star": 7333,
      "á»ģnh": 7334,
      "ĠEc": 7335,
      "250": 7336,
      "Ġcháº±m": 7337,
      "ĠVilla": 7338,
      "Ġhá»§": 7339,
      "ĠPers": 7340,
      "+)": 7341,
      "OC": 7342,
      "91": 7343,
      "iFone": 7344,
      "Ġsi": 7345,
      "ĠSaint": 7346,
      "ĠWell": 7347,
      "ĠCháº¡y": 7348,
      "ĠtÆ°ng": 7349,
      "Ġgiáº±ng": 7350,
      "ĠChic": 7351,
      "oud": 7352,
      "ĠCQÄĲT": 7353,
      "ĠcÃºc": 7354,
      "ĠRanh": 7355,
      "US": 7356,
      "ĠBat": 7357,
      "iki": 7358,
      "Ġkhiáº¿t": 7359,
      "á»ĩch": 7360,
      "ĠPi": 7361,
      "ĠBab": 7362,
      "xpress": 7363,
      "zab": 7364,
      "ĠxoÃłi": 7365,
      "Ġdiesel": 7366,
      "Ġ2025": 7367,
      "chá»ī": 7368,
      "ĠHÃ³c": 7369,
      "ĠLÃ¡ng": 7370,
      "Ġcáº¡o": 7371,
      "ĠOpen": 7372,
      "gá»ĵm": 7373,
      "ĠRáº«y": 7374,
      "ĠÄĲá»ĺNG": 7375,
      "81": 7376,
      "oid": 7377,
      "vel": 7378,
      "ĠLá»Ľp": 7379,
      "ĠÄĳáº½": 7380,
      "issan": 7381,
      "KTSG": 7382,
      "Ġ103": 7383,
      "ĠChÄĥn": 7384,
      "uguay": 7385,
      "ĠGot": 7386,
      "ĠNASA": 7387,
      "ĠNhÃłn": 7388,
      "ĠHyun": 7389,
      "ĠMW": 7390,
      "Ġcháº£i": 7391,
      "olas": 7392,
      "UNG": 7393,
      "Ġkháº¯t": 7394,
      "ĠFort": 7395,
      "ĠNghá»ģ": 7396,
      "Ġ113": 7397,
      "ĠVinamilk": 7398,
      "Ġáº¿ch": 7399,
      "ĠvÃłn": 7400,
      "ĠStreet": 7401,
      "ĠNext": 7402,
      "ĠChÃŃn": 7403,
      "ula": 7404,
      "ĠBÃŃnh": 7405,
      "AI": 7406,
      "thi": 7407,
      "Ġchá»¯ng": 7408,
      "ĠMobiFone": 7409,
      "ĠKenn": 7410,
      "ĠNep": 7411,
      "Ġá»Ĳ": 7412,
      "Ġ1968": 7413,
      "ild": 7414,
      "ĠSergei": 7415,
      "ĠEximbank": 7416,
      "ĠJung": 7417,
      "ĠlÆ°á»Ŀi": 7418,
      "IÃĬN": 7419,
      "Ġtá»¥y": 7420,
      "ĠMetro": 7421,
      "ington": 7422,
      "Ġmá»Ľ": 7423,
      "ĠSub": 7424,
      "ĠJuan": 7425,
      "ngh": 7426,
      "ĠAut": 7427,
      "Ġlem": 7428,
      "ĠThiÃªm": 7429,
      "br": 7430,
      "Ġkhang": 7431,
      "alk": 7432,
      "ĠBÃ¨": 7433,
      "Ġmáº£i": 7434,
      "ves": 7435,
      "ĠNDÄĲT": 7436,
      "ĠgÃłng": 7437,
      "Ġdiá»ģu": 7438,
      "ĠJin": 7439,
      "ĠTriáº¿t": 7440,
      "min": 7441,
      "ĠtuÃ½": 7442,
      "ĠStan": 7443,
      "ĠTá»ĳng": 7444,
      "ĠNÆ¯á»ļC": 7445,
      "ĠSÆ°Æ¡ng": 7446,
      "LS": 7447,
      "assage": 7448,
      "Ġtháº¯m": 7449,
      "HÃłn": 7450,
      "Ġnguyá»ĩt": 7451,
      "ĠBoy": 7452,
      "ĠkhoÃ¡t": 7453,
      "ĠVietNamNet": 7454,
      "ĠPower": 7455,
      "áº¢I": 7456,
      "ĠTW": 7457,
      "ĠÃĲa": 7458,
      "ĠMill": 7459,
      "Ġ1981": 7460,
      "ĠhÃ¡n": 7461,
      "ĠHey": 7462,
      "olog": 7463,
      "cÃ¡c": 7464,
      "ÄĲTCK": 7465,
      "ĠBá»¯a": 7466,
      "ĠPeru": 7467,
      "lÃłm": 7468,
      "ĠPas": 7469,
      "ĠnÃ¨": 7470,
      "ĠKSND": 7471,
      "Ġ1950": 7472,
      "ĠVietinBank": 7473,
      "oph": 7474,
      "ĠcháºŃp": 7475,
      "ĠSud": 7476,
      "terte": 7477,
      "VnMedia": 7478,
      "arta": 7479,
      "las": 7480,
      "ĠKir": 7481,
      "ning": 7482,
      "ĠAT": 7483,
      "Ġ1945": 7484,
      "VÄĲ": 7485,
      "ĠÄĳáºŃy": 7486,
      "ĠTak": 7487,
      "ĠHua": 7488,
      "ĠBrit": 7489,
      "ĠUruguay": 7490,
      "Ġháº¥u": 7491,
      "Há»ĵ": 7492,
      "Ġkhuáº¥y": 7493,
      "ĠManila": 7494,
      "Ġcá»§i": 7495,
      "Khi": 7496,
      "ait": 7497,
      "ĠICT": 7498,
      "utube": 7499,
      "Ġxuá»ĵng": 7500,
      "Æ¯á»ľNG": 7501,
      "ĠGiÃºp": 7502,
      "ĠAnn": 7503,
      "Ġup": 7504,
      "ĠQuáº¥t": 7505,
      "ĠRen": 7506,
      "ĠBÃª": 7507,
      "ĠRyan": 7508,
      "ĠValent": 7509,
      "LÃło": 7510,
      "ĠLew": 7511,
      "ĠChicago": 7512,
      "ĠquÃŃ": 7513,
      "ĠHuynh": 7514,
      "ĠDuterte": 7515,
      "esse": 7516,
      "ĠHOáºł": 7517,
      "arus": 7518,
      "oly": 7519,
      "Ġbáº§m": 7520,
      "ĠngÃ³ng": 7521,
      "ļI": 7522,
      "ĠKremlin": 7523,
      "ĠNá»ķi": 7524,
      "lÃł": 7525,
      "Ġ1976": 7526,
      "Ġ\",": 7527,
      "ienth": 7528,
      "ĠLoÃłi": 7529,
      "ĠFo": 7530,
      "ĠSnap": 7531,
      "win": 7532,
      "ĠSá»¯a": 7533,
      "PhÃ¡p": 7534,
      "ĠErd": 7535,
      "ĠSanchez": 7536,
      "ky": 7537,
      "ĠHano": 7538,
      "ĠBeckham": 7539,
      "bÃ¡n": 7540,
      "ĠASIAD": 7541,
      "PhÃº": 7542,
      "ĠSus": 7543,
      "Ġbá»ĵng": 7544,
      "ĠNhanh": 7545,
      "ĠRau": 7546,
      "ĠPHÃģ": 7547,
      "tÃªn": 7548,
      "ĠngÃ¹i": 7549,
      "ĠNgÃ£": 7550,
      "ĠNobel": 7551,
      "Kiáº¿n": 7552,
      "ĠNhÃ¬": 7553,
      "ĠKevin": 7554,
      "iku": 7555,
      "ĠIns": 7556,
      "ĠHor": 7557,
      "jan": 7558,
      "atra": 7559,
      "ĠÄĲTQG": 7560,
      "Ġcháº¡p": 7561,
      "ĠLuÃ´n": 7562,
      "Ġcanxi": 7563,
      "ĠGá»Ńi": 7564,
      "Ġvaccine": 7565,
      "ĠthÃªu": 7566,
      "Ġxua": 7567,
      "Ġxiáº¿c": 7568,
      "ĠSÃª": 7569,
      "An": 7570,
      "ĠvÃ²m": 7571,
      "ĠTony": 7572,
      "áº¾N": 7573,
      "ĠValencia": 7574,
      "ĠCPI": 7575,
      "ĠJeff": 7576,
      "ĠFace": 7577,
      "ĠTÃŃch": 7578,
      "ĠLas": 7579,
      "Ġmodel": 7580,
      "ĠchÃ¨n": 7581,
      "ĠMáº«n": 7582,
      "ĠUN": 7583,
      "ĠQUAN": 7584,
      "ĠchÃ³i": 7585,
      "otti": 7586,
      "ĠCoi": 7587,
      "ition": 7588,
      "ĠchÃł": 7589,
      "tuáº§n": 7590,
      "150": 7591,
      "ĠBush": 7592,
      "ĠTrÃłm": 7593,
      "ĠngÃ²i": 7594,
      "Ġreo": 7595,
      "Ġcat": 7596,
      "Ġngáº©n": 7597,
      "Ġas": 7598,
      "ĠTÆ°á»£ng": 7599,
      "ĠÄĲTVN": 7600,
      "Ġdáº§m": 7601,
      "ĠDJ": 7602,
      "Nga": 7603,
      "ĠKhmer": 7604,
      "Má»Ļt": 7605,
      "Ġrang": 7606,
      "uez": 7607,
      "ĠVirgin": 7608,
      "ĠBom": 7609,
      "ĠAk": 7610,
      "ĠDay": 7611,
      "ĠGÆ°Æ¡m": 7612,
      "ĠBÃ£o": 7613,
      "ĠCáº¥m": 7614,
      "áº³m": 7615,
      "ĠCá»Ŀ": 7616,
      "ĠAR": 7617,
      "CCI": 7618,
      "Ġphen": 7619,
      "bek": 7620,
      "ĠYamaha": 7621,
      "Iá»ĢU": 7622,
      "ĠBP": 7623,
      "af": 7624,
      "Ġthoa": 7625,
      "jet": 7626,
      "ĠHaz": 7627,
      "ĠrÃ´": 7628,
      "ĠJess": 7629,
      "AIDS": 7630,
      "ĠUl": 7631,
      "ĠRang": 7632,
      "ĠDen": 7633,
      "ĠKn": 7634,
      "ĠATTP": 7635,
      "ĠNorth": 7636,
      "Cáº§n": 7637,
      "ĠTÃł": 7638,
      "AC": 7639,
      "ĠYoutube": 7640,
      "ĠLove": 7641,
      "Ġder": 7642,
      "ĠÃ¡t": 7643,
      "ĠVill": 7644,
      "Æ°á»£m": 7645,
      "ĠPot": 7646,
      "bour": 7647,
      "ĠgÃ¡y": 7648,
      "ĠchÃ¡nh": 7649,
      "Ġ1974": 7650,
      "ĠSuzuki": 7651,
      "ĠDao": 7652,
      "ĠXIV": 7653,
      "Em": 7654,
      "SV": 7655,
      "ienthuc": 7656,
      "ĠHá»©a": 7657,
      "cc": 7658,
      "Sao": 7659,
      "ĠKate": 7660,
      "ĠAnk": 7661,
      "uma": 7662,
      "ThÆ°Æ¡ng": 7663,
      "tral": 7664,
      "ashin": 7665,
      "ÄĲB": 7666,
      "2005": 7667,
      "ĠRáº¡ng": 7668,
      "ĠAbu": 7669,
      "ĠSUV": 7670,
      "ĠSlov": 7671,
      "ĠÂ": 7672,
      "ĠlÃ¬": 7673,
      "96": 7674,
      "cha": 7675,
      "Hz": 7676,
      "ĠthÃª": 7677,
      "ĠgÃło": 7678,
      "ĠÃºp": 7679,
      "Ġur": 7680,
      "ĠvÃµng": 7681,
      "ĠTiá»ĩp": 7682,
      "ĠRaf": 7683,
      "Iá»ĤM": 7684,
      "Ġbiáº¿u": 7685,
      "ĠThao": 7686,
      "Ġfl": 7687,
      "ãĥ": 7688,
      "Ġ135": 7689,
      "Ġfile": 7690,
      "ĠPen": 7691,
      "nay": 7692,
      "ĠADN": 7693,
      "ift": 7694,
      "vÃł": 7695,
      "ĠMik": 7696,
      "edy": 7697,
      "ĠÄĲá»£t": 7698,
      "ĠÆ°Æ¡m": 7699,
      "Ġen": 7700,
      "PM": 7701,
      "Ġ1973": 7702,
      "ĠBrown": 7703,
      "ĠFernand": 7704,
      "gor": 7705,
      "ĠDÃłn": 7706,
      "Ġcá»ĳp": 7707,
      "ÄĲÃ¢y": 7708,
      "ĠElizab": 7709,
      "ĠÄĳÃ´la": 7710,
      "ze": 7711,
      "ĠBiáº¿n": 7712,
      "Ġgá»Ľm": 7713,
      "Ġváº¡": 7714,
      "ĠnÃªm": 7715,
      "ĠNou": 7716,
      "ĠErdogan": 7717,
      "ĠSM": 7718,
      "Ġcá»ĵng": 7719,
      "ĠAy": 7720,
      "Ġphá»ĵng": 7721,
      "oshenko": 7722,
      "ĠAD": 7723,
      "ĠJÃª": 7724,
      "Ġtua": 7725,
      "Ġngháº¹t": 7726,
      "ĠKhiÃªm": 7727,
      "ĠTáº§n": 7728,
      "ĠXung": 7729,
      "TÃ¢y": 7730,
      "Ġáº¿": 7731,
      "omp": 7732,
      "ĠrÃ´n": 7733,
      "ĠKl": 7734,
      "eman": 7735,
      "Qaeda": 7736,
      "ĠMarc": 7737,
      "ĠMen": 7738,
      "ĠOff": 7739,
      "sy": 7740,
      "ĠKid": 7741,
      "ÄĲá»©c": 7742,
      "ilon": 7743,
      "ret": 7744,
      "ĠphÃ´i": 7745,
      "Ġsáº£nh": 7746,
      "ĠJÃªsus": 7747,
      "ĠMedia": 7748,
      "ĠElizabeth": 7749,
      "ĠFrancisco": 7750,
      "ĠlÃ¹m": 7751,
      "ĠchÆ°á»Ľng": 7752,
      "Ġquáº©n": 7753,
      "ĠtoÃ¡t": 7754,
      "ĠFir": 7755,
      "abeco": 7756,
      "ĠIMF": 7757,
      "din": 7758,
      "Ġhuá»·": 7759,
      "370": 7760,
      "Ġat": 7761,
      "ĠTrá»£": 7762,
      "Ġgá»Ļi": 7763,
      "bes": 7764,
      "pper": 7765,
      "2019": 7766,
      "eller": 7767,
      "ĠRome": 7768,
      "ĠEbola": 7769,
      "ĠRáº¡ch": 7770,
      "phÃª": 7771,
      "Ġnhai": 7772,
      "áº¬T": 7773,
      "ĠJacob": 7774,
      "igan": 7775,
      "ĠSoo": 7776,
      "Ġnáº§n": 7777,
      "93": 7778,
      "pha": 7779,
      "EFA": 7780,
      "xe": 7781,
      "PS": 7782,
      "ĠFred": 7783,
      "ĠKan": 7784,
      "TÃ¢n": 7785,
      "ten": 7786,
      "ĠID": 7787,
      "Ġ240": 7788,
      "Ġ1978": 7789,
      "ĠSerbia": 7790,
      "ĠmÆ°á»£t": 7791,
      "ĠWhite": 7792,
      "EL": 7793,
      "ved": 7794,
      "ĠMek": 7795,
      "dney": 7796,
      "ĠScott": 7797,
      "ĠBash": 7798,
      "ĠSD": 7799,
      "ru": 7800,
      "rad": 7801,
      "ĠHanoinet": 7802,
      "mon": 7803,
      "ĠRy": 7804,
      "cÃ¹ng": 7805,
      "ĠTháº¡c": 7806,
      "Kienthuc": 7807,
      "ĠtrÆ¡": 7808,
      "ĠUz": 7809,
      "ĠLavrov": 7810,
      "ĠNGÃĢY": 7811,
      "lam": 7812,
      "ĠCháº¿t": 7813,
      "Ġstress": 7814,
      "ĠrÃ£nh": 7815,
      "Ġlike": 7816,
      "ET": 7817,
      "so": 7818,
      "ĠShe": 7819,
      "iter": 7820,
      "utsal": 7821,
      "ĠMÅ©i": 7822,
      "ĠIvan": 7823,
      "ĠNá»ģn": 7824,
      "áº¦U": 7825,
      "ĦN": 7826,
      "ĠÄĲÃ¢u": 7827,
      "ĠKá»ĭch": 7828,
      "ÄĳÆ°á»£c": 7829,
      "ĠJolie": 7830,
      "VÅ©ng": 7831,
      "Ġngáº¥m": 7832,
      "ĠThÃ¬n": 7833,
      "cao": 7834,
      "ĠchÆ°á»Ľc": 7835,
      "Ass": 7836,
      "ĠTi": 7837,
      "ĠAnkara": 7838,
      "Ġgt": 7839,
      "ĠÄĳiá»ģm": 7840,
      "ĠvÃ¢ng": 7841,
      "ĠTCTD": 7842,
      "ĠKáº¡n": 7843,
      "ical": 7844,
      "ĠhiÃªn": 7845,
      "ĠThá»¥": 7846,
      "ĠGran": 7847,
      "ĠCáº¡nh": 7848,
      "ĠGDÄĲT": 7849,
      "ĠGea": 7850,
      "nhÃł": 7851,
      "Ġnung": 7852,
      "ĠDmit": 7853,
      "isto": 7854,
      "zone": 7855,
      "akia": 7856,
      "ĴNG": 7857,
      "Ġvung": 7858,
      "ĠAbb": 7859,
      "lig": 7860,
      "mond": 7861,
      "ode": 7862,
      "ĠTá»ĳc": 7863,
      "ury": 7864,
      "ĠDisney": 7865,
      "ĠÃĲáº¥ng": 7866,
      "ĠgiÃ´ng": 7867,
      "ĠSilva": 7868,
      "Ġpop": 7869,
      "Ġngáº«m": 7870,
      "ĠHome": 7871,
      "áº¢O": 7872,
      "gas": 7873,
      "ĠPhÃª": 7874,
      "ĠFan": 7875,
      "St": 7876,
      "Ġel": 7877,
      "ĠDá»ĭp": 7878,
      "Ġnhá»ĩn": 7879,
      "ĠÄĲau": 7880,
      "ĠAgu": 7881,
      "ĠSydney": 7882,
      "ĠLÃ£i": 7883,
      "ĠsuÃ´n": 7884,
      "Ġtháº³m": 7885,
      "Ġbus": 7886,
      "thÃłnh": 7887,
      "jo": 7888,
      "Ġkn": 7889,
      "Ġgang": 7890,
      "ĠLáº½": 7891,
      "ĠDáº«n": 7892,
      "Ġnháº±n": 7893,
      "ĠNháº¯c": 7894,
      "Æ¯á»¢": 7895,
      "Ġ128": 7896,
      "Ľt": 7897,
      "ĠnhÃłm": 7898,
      "ĠCameron": 7899,
      "Ġ^": 7900,
      "ÄĲSPL": 7901,
      "Ġkháº½": 7902,
      "ĠlÃ¹n": 7903,
      "ĠGiadinhNet": 7904,
      "ĠÄĲá»īnh": 7905,
      "nhap": 7906,
      "ĠngÃł": 7907,
      "rolimex": 7908,
      "ĠRT": 7909,
      "ĠWood": 7910,
      "ĠAmerica": 7911,
      "Ġgo": 7912,
      "ĠGÃ¢y": 7913,
      "ĠSerie": 7914,
      "Xem": 7915,
      "ĠphÃ´ng": 7916,
      "ĠPetro": 7917,
      "ĠMiáº¿u": 7918,
      "ĠKha": 7919,
      "hai": 7920,
      "ĠCá»ĳc": 7921,
      "Ġpho": 7922,
      "ĠPhÆ°á»Ŀng": 7923,
      "adn": 7924,
      "Ġ112": 7925,
      "Cl": 7926,
      "Ġwith": 7927,
      "ĠVáº£": 7928,
      "Ġ%,": 7929,
      "ĠBrexit": 7930,
      "ĠChá»©c": 7931,
      "bai": 7932,
      "Ġcá»Ļi": 7933,
      "ĠLÄĲBÄĲ": 7934,
      "á»¤NG": 7935,
      "Ġcl": 7936,
      "Ġtáº»": 7937,
      "ĠNepal": 7938,
      "ega": 7939,
      "ement": 7940,
      "ĠTDTT": 7941,
      "ther": 7942,
      "Ġor": 7943,
      "ĠLife": 7944,
      "ĠLex": 7945,
      "ĠkhÃ©t": 7946,
      "Ġdáº±n": 7947,
      "ĠMurray": 7948,
      "Ġtáº©m": 7949,
      "ĠEric": 7950,
      "**": 7951,
      "Ġvun": 7952,
      "ĠWTO": 7953,
      "Ġthá»«ng": 7954,
      "ampton": 7955,
      "ĠnÄĥn": 7956,
      "ĠNar": 7957,
      "Ġháº¥t": 7958,
      "Ġxá»īu": 7959,
      "Ġmáº©u": 7960,
      "ĠNgÃ´n": 7961,
      "ĠHouse": 7962,
      "ĠVik": 7963,
      "ĠJet": 7964,
      "ĠTá»Ķ": 7965,
      "Ġbung": 7966,
      "Ġngá»«": 7967,
      "ĠTÃ½": 7968,
      "ĠVá»¹": 7969,
      "ĠPlaza": 7970,
      "ĠXÃŃ": 7971,
      "Ġ750": 7972,
      "ĠNá»¥": 7973,
      "Ġ102": 7974,
      "ĠQUáº¢N": 7975,
      "Ġmassage": 7976,
      "ĠAIDS": 7977,
      "NHNN": 7978,
      "ĠnáºŃp": 7979,
      "ĠQÄĲND": 7980,
      "ĠHáº¡n": 7981,
      "ju": 7982,
      "ĠhÃ¡": 7983,
      "ias": 7984,
      "Báº¯c": 7985,
      "alem": 7986,
      "ĠAnna": 7987,
      "ĠMatt": 7988,
      "ĠYonhap": 7989,
      "ĠUp": 7990,
      "Ġchá»ķi": 7991,
      "ĠTun": 7992,
      "ĠAlbum": 7993,
      "ÃģO": 7994,
      "BM": 7995,
      "ator": 7996,
      "ef": 7997,
      "ĠGiÃªng": 7998,
      "ĠGPMB": 7999,
      "onet": 8000,
      "ĠRub": 8001,
      "Ġgiá»ı": 8002,
      "ĠQuá»³": 8003,
      "ĠThoa": 8004,
      "Ġmá»©t": 8005,
      "ĠxÆ°á»Ľc": 8006,
      "ĠRá»«ng": 8007,
      "ĠOl": 8008,
      "Ġnáº·c": 8009,
      "ĠMÆ¡": 8010,
      "Äĳá»ĳi": 8011,
      "ĠMul": 8012,
      "ĠVá»įng": 8013,
      "Ġlaser": 8014,
      "pop": 8015,
      "hÆ¡n": 8016,
      "ĠBia": 8017,
      "ĠSIM": 8018,
      "KD": 8019,
      "ĠHÃĢNG": 8020,
      "ĠbÆ°á»Ľm": 8021,
      "ĠrÃ¡n": 8022,
      "ĠMet": 8023,
      "ĠQuyáº¿n": 8024,
      "inn": 8025,
      "ĠLionel": 8026,
      "Ġxá»ĳp": 8027,
      "tra": 8028,
      "ĠIbrahimovic": 8029,
      "trÃªn": 8030,
      "ÃģNG": 8031,
      "ANH": 8032,
      "ym": 8033,
      "Ġtru": 8034,
      "Ġmáº«n": 8035,
      "ĠUÃ´ng": 8036,
      "well": 8037,
      "ĠhÃ¨n": 8038,
      "ĠJak": 8039,
      "ĠMáºŃt": 8040,
      "ĠGeneva": 8041,
      "ĠAndy": 8042,
      "Ġmicro": 8043,
      "ĠGaza": 8044,
      "ĠAsian": 8045,
      "ct": 8046,
      "ĠKit": 8047,
      "ĠÄĲáº§m": 8048,
      "Ã¼": 8049,
      "ĠGuardian": 8050,
      "Ġphá»¥ng": 8051,
      "ĠGard": 8052,
      "ĠrÃª": 8053,
      "ĠThá»¥c": 8054,
      "ĠquÃ¢y": 8055,
      "ision": 8056,
      "tá»±": 8057,
      "ĠWilliams": 8058,
      "Ġnháº¥p": 8059,
      "Ġtá»§i": 8060,
      "ban": 8061,
      "ĠtrÄ©": 8062,
      "ĠRobin": 8063,
      "Ġmark": 8064,
      "ladesh": 8065,
      "ĠGÃł": 8066,
      "ĠBlue": 8067,
      "Ġtáº§u": 8068,
      "ĠcÆ°á»¡i": 8069,
      "ĠthÃ©t": 8070,
      "ĠRai": 8071,
      "Ġcarbon": 8072,
      "ĠBashar": 8073,
      "Ġnáº¡t": 8074,
      "ĠRoll": 8075,
      "94": 8076,
      "esc": 8077,
      "lyn": 8078,
      "ouch": 8079,
      "ĠVAM": 8080,
      "ĠDá»¤NG": 8081,
      "ĠBelarus": 8082,
      "ĠHawai": 8083,
      "ĠWayne": 8084,
      "!!": 8085,
      "ĠBQL": 8086,
      "ĠCáº©n": 8087,
      "ĠForbes": 8088,
      "Ġmáº¹o": 8089,
      "ĠAlg": 8090,
      "ĠkÃ¨n": 8091,
      "ĠRem": 8092,
      "giáº£m": 8093,
      "SS": 8094,
      "ĠMÃ£i": 8095,
      "ĠrÃ¹ng": 8096,
      "ĠGom": 8097,
      "ĠnhÃłn": 8098,
      "Äĳáº¡i": 8099,
      "Æ°á»Ľn": 8100,
      "ĠnÃŃu": 8101,
      "Ġ1977": 8102,
      "TBKTSG": 8103,
      "Assad": 8104,
      "ERS": 8105,
      "ĠIa": 8106,
      "ĠNgÃł": 8107,
      "ĠNháºŃp": 8108,
      "eto": 8109,
      "ĠĠĠĠĠĠĠĠ": 8110,
      "Ġuáº¥t": 8111,
      "ĠGame": 8112,
      "ĠHye": 8113,
      "ĠGV": 8114,
      "ĠBenz": 8115,
      "ĠVinac": 8116,
      "ĠAntonio": 8117,
      "ĠXÃºc": 8118,
      "ats": 8119,
      "ĠSher": 8120,
      "ĠcÄĥm": 8121,
      "PV": 8122,
      "Ġ2021": 8123,
      "ĠEmma": 8124,
      "ĠgÄĥng": 8125,
      "ista": 8126,
      "Ġlt": 8127,
      "ĠNáºŃm": 8128,
      "ĠnÃłnh": 8129,
      "Ġsp": 8130,
      "Ġquáº¿": 8131,
      "ĠÄĲá»ĳc": 8132,
      "ĠGiáº£ng": 8133,
      "IL": 8134,
      "á»ŀ": 8135,
      "ĠDev": 8136,
      "ĠKer": 8137,
      "ĠhÃ£nh": 8138,
      "ĠEuropa": 8139,
      "ĠEar": 8140,
      "ĠBangladesh": 8141,
      "ĠBridge": 8142,
      "Ġcháº±ng": 8143,
      "Ġvo": 8144,
      "Ġren": 8145,
      "Ġhor": 8146,
      "ĠBy": 8147,
      "ĠYong": 8148,
      "seo": 8149,
      "ĠvÃ£i": 8150,
      "ĠNational": 8151,
      "ater": 8152,
      "ĠGil": 8153,
      "ĠsÃ¡o": 8154,
      "IP": 8155,
      "Ġmáº©n": 8156,
      "ĠloÃ£ng": 8157,
      "ĠDream": 8158,
      "ple": 8159,
      "Äĳoáº¡n": 8160,
      "ĠCá»§a": 8161,
      "ĠrÃ¬nh": 8162,
      "ĠmÃ´tÃ´": 8163,
      "ĠVIá»ĨC": 8164,
      "ese": 8165,
      "RC": 8166,
      "ĠBG": 8167,
      "ĠtrÅ©ng": 8168,
      "ĠTÃ¡i": 8169,
      "ĠbÄĥm": 8170,
      "Ġnude": 8171,
      "xcÆ¡": 8172,
      "ĠMand": 8173,
      "ĠHolland": 8174,
      "ĠType": 8175,
      "ĠNHTM": 8176,
      "ĠUEFA": 8177,
      "ĠLÃ²ng": 8178,
      "ennis": 8179,
      "ĠDiÃªn": 8180,
      "ĠÄĳá»Ļn": 8181,
      "ĠHÃ¡t": 8182,
      "ĠPersie": 8183,
      "ĠhÃ¢n": 8184,
      "Ġvon": 8185,
      "ĠBh": 8186,
      "ĠPhiáº¿u": 8187,
      "ÄĲáº¡i": 8188,
      "itar": 8189,
      "ĠChÆ°": 8190,
      "ĠTá»¥i": 8191,
      "ĠMass": 8192,
      "ĠNAM": 8193,
      "Ġ107": 8194,
      "ĠBruss": 8195,
      "Ar": 8196,
      "ĠtÃŃt": 8197,
      "ĠAirbus": 8198,
      "ĠMiG": 8199,
      "ĠTháº»": 8200,
      "esterol": 8201,
      "ĠAwards": 8202,
      "Ġroi": 8203,
      "ĠSul": 8204,
      "ough": 8205,
      "ages": 8206,
      "Ġtáº£o": 8207,
      "Ġ104": 8208,
      "ĠBiz": 8209,
      "ĠCarlos": 8210,
      "Ġcau": 8211,
      "ĠMÃ¡t": 8212,
      "ĠGirl": 8213,
      "celand": 8214,
      "ĠJoseph": 8215,
      "ĠÄĲIá»ĢU": 8216,
      "ĠÄĳá»į": 8217,
      "LT": 8218,
      "ĠYan": 8219,
      "ģĦ": 8220,
      "ĠBoston": 8221,
      "ĠHQ": 8222,
      "ĠZid": 8223,
      "Ġsá»¥c": 8224,
      "ĠTáº§m": 8225,
      "ĠTerry": 8226,
      "ĠLady": 8227,
      "wei": 8228,
      "ĠÄĳÃ¡i": 8229,
      "ĠÄĲá»©a": 8230,
      "ÃĻ": 8231,
      "elf": 8232,
      "ĠShinzo": 8233,
      "ĠMekong": 8234,
      "Fi": 8235,
      "á»Ģ": 8236,
      "ĠxÃ¹m": 8237,
      "Ġngao": 8238,
      "ĠFuk": 8239,
      "ĠThÆ°á»Łng": 8240,
      "ĠLum": 8241,
      "ĠnhÃŃch": 8242,
      "Ġhoay": 8243,
      "ĠUzbek": 8244,
      "ĠquÃ½t": 8245,
      "Ninh": 8246,
      "una": 8247,
      "á»§i": 8248,
      "\"...": 8249,
      "ĠWB": 8250,
      "ĠTuá»ĩ": 8251,
      "ĠSwift": 8252,
      "ĠPleiku": 8253,
      "ĠCá»ĳng": 8254,
      "ĠSuy": 8255,
      "ĠSá»¬": 8256,
      "ĠYeah": 8257,
      "ĠCorp": 8258,
      "ĠGÃ³i": 8259,
      "ĠHH": 8260,
      "hen": 8261,
      "ĠThá»īnh": 8262,
      "ĠHawaii": 8263,
      "ĠUAE": 8264,
      "ĠMáº§m": 8265,
      "ĠDia": 8266,
      "ĠNissan": 8267,
      "ĠtoÃł": 8268,
      "ĠThÃºc": 8269,
      "ĠThÆ¡m": 8270,
      "áº¬N": 8271,
      "Ġhe": 8272,
      "aire": 8273,
      "ĠBell": 8274,
      "________": 8275,
      "ĠDuáº©n": 8276,
      "Ġ1971": 8277,
      "ys": 8278,
      "Ġcabin": 8279,
      "ĠStephen": 8280,
      "ĠZidane": 8281,
      "Cadn": 8282,
      "ĠIceland": 8283,
      "Ġsá»¡": 8284,
      "ĠKang": 8285,
      "icon": 8286,
      "ĠSnow": 8287,
      "Åį": 8288,
      "ĠTorres": 8289,
      "ĠChÆ¡i": 8290,
      "ĠTrá»ĵng": 8291,
      "ĠDá»°": 8292,
      "Ġ''": 8293,
      "Ġmá»ĭt": 8294,
      "ĠJay": 8295,
      "2004": 8296,
      "ĠBusiness": 8297,
      "Ġngá»Ńi": 8298,
      "Ġcá»Ļ": 8299,
      "Ġtuá»Ļt": 8300,
      "ĠYu": 8301,
      "thá»ĭ": 8302,
      "Ġlon": 8303,
      "ĠClub": 8304,
      "esta": 8305,
      "ashion": 8306,
      "ĠMis": 8307,
      "ĠHCB": 8308,
      "OM": 8309,
      "Ġngá»§i": 8310,
      "ĠLuyá»ĩn": 8311,
      "á»ĦN": 8312,
      "ĠPháº£": 8313,
      "ĠHarvard": 8314,
      "Ġgá»Łi": 8315,
      "ĠAngelina": 8316,
      "die": 8317,
      "ĠCNVCLÄĲ": 8318,
      "castle": 8319,
      "vá»Ľi": 8320,
      "ĠCav": 8321,
      "NgÃły": 8322,
      "ĠMits": 8323,
      "ĠChev": 8324,
      "imb": 8325,
      "ĠcÃ¡u": 8326,
      "ĠSergio": 8327,
      "ville": 8328,
      "ĠLÄĲTB": 8329,
      "urt": 8330,
      "ĠAndrew": 8331,
      "via": 8332,
      "Ġhacker": 8333,
      "ĠGian": 8334,
      "Ġvá»ĵ": 8335,
      "ĠNoo": 8336,
      "ĠPanama": 8337,
      "PLO": 8338,
      "á»Ńu": 8339,
      "hay": 8340,
      "play": 8341,
      "ĠElec": 8342,
      "ĠBá»ĺ": 8343,
      "ĠtrÆ°á»Ľng": 8344,
      "Ġnhang": 8345,
      "ĠSá»ķ": 8346,
      "ĠNHÃĢ": 8347,
      "ĠAlb": 8348,
      "ĠnhÃºng": 8349,
      "Ġngá»Ŀi": 8350,
      "SP": 8351,
      "Ġdáº«u": 8352,
      "Ġsá»ī": 8353,
      "ĠFu": 8354,
      "ĠLaw": 8355,
      "ĠScar": 8356,
      "?!": 8357,
      "ĠFel": 8358,
      "ĠVNÄĲ": 8359,
      "ĠPhilip": 8360,
      "ĠÄĲá»Ĳ": 8361,
      "ĠCá»±": 8362,
      "Ġnhung": 8363,
      "ĠMobile": 8364,
      "Ġná»ī": 8365,
      "ĠHá»ķ": 8366,
      "ĠBak": 8367,
      "ĠPop": 8368,
      "ĠBrussels": 8369,
      "ĠkhoÃ¡": 8370,
      "ĠÄĲoan": 8371,
      "ĠkWh": 8372,
      "ĠBXH": 8373,
      "Ġ116": 8374,
      "ĠUzbekistan": 8375,
      "ĠquÄĥng": 8376,
      "lott": 8377,
      "ĠTÄĲ": 8378,
      "Ġ106": 8379,
      "ĠtrÃ³t": 8380,
      "ĠTá»ī": 8381,
      "Ġcafe": 8382,
      "Ġngá»Ľ": 8383,
      "oni": 8384,
      "ĠZika": 8385,
      "DÄĲ": 8386,
      "ilton": 8387,
      "ĠchoÃłng": 8388,
      "ĠXU": 8389,
      "ĠXX": 8390,
      "ĠNas": 8391,
      "ĠLPG": 8392,
      "ĠPhÃ¡": 8393,
      "odo": 8394,
      "ĠCHá»¨C": 8395,
      "ĠPhone": 8396,
      "Ġsty": 8397,
      "usalem": 8398,
      "ĠDmitry": 8399,
      "Ã¶": 8400,
      "áº®": 8401,
      "ĠYahoo": 8402,
      "Ġ1969": 8403,
      "Ġchol": 8404,
      "âģĦ": 8405,
      "oa": 8406,
      "Ġcas": 8407,
      "ĠPR": 8408,
      "ĠGates": 8409,
      "Ġpiano": 8410,
      "sau": 8411,
      "aghd": 8412,
      "ĠgáºŃp": 8413,
      "Ġnilon": 8414,
      "ĠÄĲá»£i": 8415,
      "ĠInfonet": 8416,
      "ĠHitler": 8417,
      "Ġ...": 8418,
      "Ġ650": 8419,
      "NS": 8420,
      "ĠMario": 8421,
      "ĠsÃºp": 8422,
      "ĠngÃ¡ch": 8423,
      "Ġgiá»Ł": 8424,
      "rain": 8425,
      "ĠChang": 8426,
      "ĠFerrari": 8427,
      "ĠXH": 8428,
      "ĠAFC": 8429,
      "ĠloÃ©t": 8430,
      "BD": 8431,
      "ĠThiá»ĩu": 8432,
      "ĠJerusalem": 8433,
      "ĠKhÃ¡": 8434,
      "ĠVHTTDL": 8435,
      "Ġhá»ĳc": 8436,
      "Ġphá»Ľt": 8437,
      "ĠhÃ²m": 8438,
      "ĠTháºŃp": 8439,
      "Ġ109": 8440,
      "ror": 8441,
      "istics": 8442,
      "ĠMedved": 8443,
      "ĠLor": 8444,
      "lib": 8445,
      "ĠPetrolimex": 8446,
      "Ba": 8447,
      "ĠWang": 8448,
      "ĠConte": 8449,
      "tha": 8450,
      "ĠQLTT": 8451,
      "ĠVar": 8452,
      "Ġyá»ĥ": 8453,
      "Ġ230": 8454,
      "SGGP": 8455,
      "ĠZen": 8456,
      "ĠMonaco": 8457,
      "walk": 8458,
      "Ġváº·n": 8459,
      "dro": 8460,
      "Ġá»ĳp": 8461,
      "ĠHum": 8462,
      "nia": 8463,
      "ĠhÃ²ng": 8464,
      "Ġdá»Ļt": 8465,
      "ĠPacific": 8466,
      "ĠSGK": 8467,
      "Äĳi": 8468,
      "ĠBah": 8469,
      "ĠPoroshenko": 8470,
      "Ġbáº¹p": 8471,
      "ĠTáº¿": 8472,
      "ĠPap": 8473,
      "Ġxiáº¿t": 8474,
      "ÄĲiá»ģu": 8475,
      "ĠHCÄĲ": 8476,
      "Ġ320": 8477,
      "hoáº·c": 8478,
      "Ġ1967": 8479,
      "á»Ńng": 8480,
      "Æ°Æ¡u": 8481,
      "ĠVII": 8482,
      "ĠGang": 8483,
      "ovich": 8484,
      "Ġthiáº¿p": 8485,
      "ĠchÃłi": 8486,
      "OR": 8487,
      "áºª": 8488,
      "ĠHá»įa": 8489,
      "ĠLá»ĳi": 8490,
      "á»ım": 8491,
      "ĠMÃ¡i": 8492,
      "Ġbá»ĭch": 8493,
      "ĠVIII": 8494,
      "gáº§n": 8495,
      "ĠThai": 8496,
      "ĠchÃ²i": 8497,
      "ĠTar": 8498,
      "ĠCÃ¹": 8499,
      "ĠXp": 8500,
      "ĠSanta": 8501,
      "ĠChim": 8502,
      "ĠMÃ£o": 8503,
      "Ġoff": 8504,
      "ĠJang": 8505,
      "Ġres": 8506,
      "ĠHá»Ľi": 8507,
      "ĠYing": 8508,
      "rot": 8509,
      "ĮC": 8510,
      "Ġsal": 8511,
      "ĠLá»Ĺi": 8512,
      "ĠFri": 8513,
      "ict": 8514,
      "ĠValentine": 8515,
      "ĠBrunei": 8516,
      "Ġ|": 8517,
      "ĠÄĳá»ĳm": 8518,
      "ĠVinashin": 8519,
      "Ġcuá»ĳng": 8520,
      "ĠlÃŃu": 8521,
      "ilo": 8522,
      "ĠGener": 8523,
      "ĠHazard": 8524,
      "ĠsÃ©c": 8525,
      "ĠnhÃ¡y": 8526,
      "Ġ111": 8527,
      "ĠThuáºŃt": 8528,
      "ĠCalisto": 8529,
      "ĠÃī": 8530,
      "ĠDelhi": 8531,
      "ĠRh": 8532,
      "Ġgá»Ļp": 8533,
      "ÄĲK": 8534,
      "Ġque": 8535,
      "ĠCamera": 8536,
      "NhÃł": 8537,
      "ĠCNLÄĲ": 8538,
      "Ġcalo": 8539,
      "ĠNewcastle": 8540,
      "ĠHÆ°á»Łng": 8541,
      "ĠHous": 8542,
      "Ġdá»©a": 8543,
      "ĠVietjet": 8544,
      "cÃ²n": 8545,
      "ĠGood": 8546,
      "kÃŃp": 8547,
      "bl": 8548,
      "Ġcholesterol": 8549,
      "wich": 8550,
      "ĠxÃª": 8551,
      "Gia": 8552,
      "ĠChristian": 8553,
      "cá»§a": 8554,
      "khi": 8555,
      "ais": 8556,
      "...\".": 8557,
      "ĠTime": 8558,
      "ĠMedvedev": 8559,
      "Ġrá»£n": 8560,
      "rat": 8561,
      "TD": 8562,
      "ĠCAQ": 8563,
      "Ġbáº©y": 8564,
      "Ġnick": 8565,
      "ĠPrin": 8566,
      "ĠtÆ¡i": 8567,
      "ĠAmerican": 8568,
      "ĠCong": 8569,
      "gu": 8570,
      "Iá»ĨP": 8571,
      "ĠChe": 8572,
      "Ġpro": 8573,
      "á»ĲC": 8574,
      "ĠTeleg": 8575,
      "Ġvisa": 8576,
      "ÃĶng": 8577,
      "ĠSimon": 8578,
      "garia": 8579,
      "ĠSay": 8580,
      "ĠLá»±a": 8581,
      "Berry": 8582,
      "ĠTed": 8583,
      "ĠhÃ©c": 8584,
      "PR": 8585,
      "page": 8586,
      "Ġmy": 8587,
      "anny": 8588,
      "ĠOx": 8589,
      "Ġ1965": 8590,
      "Ġpen": 8591,
      "ĠAqu": 8592,
      "abi": 8593,
      "Ġnháº£": 8594,
      "ĠrÆ°á»£t": 8595,
      "ĠchÃ¡t": 8596,
      "khÃ³a": 8597,
      "Ġbá»¥c": 8598,
      "láº§n": 8599,
      "ĠbÆ°á»Ľu": 8600,
      "PEC": 8601,
      "ÃģN": 8602,
      "ĠBund": 8603,
      "ĠThuyáº¿t": 8604,
      "ĠNgá»įn": 8605,
      "ĠXNK": 8606,
      "ĠVegas": 8607,
      "abeu": 8608,
      "ĠDol": 8609,
      "Ġben": 8610,
      "ĠInc": 8611,
      "ĠChá»Ĺ": 8612,
      "Long": 8613,
      "Ġday": 8614,
      "Tá»«": 8615,
      "Zing": 8616,
      "eber": 8617,
      "ĠPho": 8618,
      "ĠLangdon": 8619,
      "Ġsáº·c": 8620,
      "Ġváº©n": 8621,
      "Ġnháº¥c": 8622,
      "ĠCMND": 8623,
      "ois": 8624,
      "ĠSÃ³ng": 8625,
      "Ġkhuynh": 8626,
      "ĠTá»µ": 8627,
      "ĠPin": 8628,
      "ĠVNM": 8629,
      "ĠBernabeu": 8630,
      "ĠTab": 8631,
      "Ġáº£m": 8632,
      "ĠráºŃm": 8633,
      "Ġtrau": 8634,
      "ĠHuawei": 8635,
      "ĠRamos": 8636,
      "350": 8637,
      "ĠXiao": 8638,
      "ĠchiÃªng": 8639,
      "ĠXÄĥng": 8640,
      "ĠHigh": 8641,
      "akhstan": 8642,
      "ĠPier": 8643,
      "ĠgÆ°Æ¡m": 8644,
      "hiá»ĩn": 8645,
      "Ġtrá»Ĺi": 8646,
      "ĠNDT": 8647,
      "243": 8648,
      "ĠVietinbank": 8649,
      "ĠKhung": 8650,
      "ĠnÃ£y": 8651,
      "ĠBlackBerry": 8652,
      "Ah": 8653,
      "ĠlÃ¬a": 8654,
      "ĠPau": 8655,
      "Ġyáº¿m": 8656,
      "ĠTHá»°C": 8657,
      "Ġkáº½m": 8658,
      "ĠNho": 8659,
      "onex": 8660,
      "Ġseries": 8661,
      "ĠICTnews": 8662,
      "ĠCang": 8663,
      "ĠToáº£n": 8664,
      "ĠGiÃ³": 8665,
      "ĠKelly": 8666,
      "ĠVCB": 8667,
      "ĠSudan": 8668,
      "ĠCannes": 8669,
      "ĠLeb": 8670,
      "IVE": 8671,
      "ĠPitt": 8672,
      "Ġ550": 8673,
      "ĠAK": 8674,
      "ĠPHáºł": 8675,
      "ĠBut": 8676,
      "ĠVGP": 8677,
      "ĠDep": 8678,
      "Ġgáº¯m": 8679,
      "Ġloay": 8680,
      "ĠEmail": 8681,
      "ĠStud": 8682,
      "ĠDy": 8683,
      "ĠmÃªnh": 8684,
      "AG": 8685,
      "eu": 8686,
      "ject": 8687,
      "Ġsáº£o": 8688,
      "Ġbá»ĭa": 8689,
      "ĠGiÃłu": 8690,
      "ĠCarter": 8691,
      "ĠLexus": 8692,
      "Ġmarketing": 8693,
      "ĠDig": 8694,
      "ĠCC": 8695,
      "Ġ210": 8696,
      "ĠGiÃłng": 8697,
      "ĠKhoÃ¡ng": 8698,
      "ĠKenya": 8699,
      "eed": 8700,
      "ĠCry": 8701,
      "ĠMak": 8702,
      "ANG": 8703,
      "ĠNm": 8704,
      "ĠVirginia": 8705,
      "sc": 8706,
      "ĠRÆ°á»£u": 8707,
      "irates": 8708,
      "Viá»ĩc": 8709,
      "amb": 8710,
      "ĠUnivers": 8711,
      "ĠSarah": 8712,
      "ĠdÄĥm": 8713,
      "ĠAston": 8714,
      "kip": 8715,
      "ĠJohan": 8716,
      "ĠSá»£": 8717,
      "mes": 8718,
      "ĠSáº§m": 8719,
      "ĠThy": 8720,
      "áº¦N": 8721,
      "ĠCáº¤": 8722,
      "ĠGM": 8723,
      "Æ¯á»ļNG": 8724,
      "ĠAlgeria": 8725,
      "ĠPVC": 8726,
      "celotti": 8727,
      "ĠRoyal": 8728,
      "ĠTÃ³m": 8729,
      "ĠKos": 8730,
      "ĠVIá»ĨT": 8731,
      "alines": 8732,
      "ĠBulgaria": 8733,
      "ĠSÃ¢m": 8734,
      "ĠRoss": 8735,
      "ĠHÃ´n": 8736,
      "nhá»¯ng": 8737,
      "ĠLaden": 8738,
      "Ġthiá»ģn": 8739,
      "ĠbÃ¨o": 8740,
      "ĠAguero": 8741,
      "Ġriáº¿t": 8742,
      "ĠthÃ³c": 8743,
      "ĠLaz": 8744,
      "Ġrá»§a": 8745,
      "ĠChoi": 8746,
      "ĠJakarta": 8747,
      ").-": 8748,
      "BH": 8749,
      "HNMO": 8750,
      "ĠHáº¡ng": 8751,
      "une": 8752,
      "reak": 8753,
      "won": 8754,
      "ware": 8755,
      "ĠbÃ¹a": 8756,
      "xx": 8757,
      "ĠÃ²a": 8758,
      "ÃģCH": 8759,
      "ĠNGUYá»ĦN": 8760,
      "ĠquáºŃy": 8761,
      "ĠAncelotti": 8762,
      "ĠHart": 8763,
      "ĠNNPTNT": 8764,
      "ĠSevilla": 8765,
      "ult": 8766,
      "obile": 8767,
      "bach": 8768,
      "ĠNuÃ´i": 8769,
      "ĠLatinh": 8770,
      "ĠKennedy": 8771,
      "ĠnhoÃ¡ng": 8772,
      "Ġxá»īn": 8773,
      "2000": 8774,
      "ĠÄĲTDÄĲ": 8775,
      "ĠTGÄĲ": 8776,
      "ĠEnd": 8777,
      "ĠDVD": 8778,
      "Ġcuá»ĳc": 8779,
      "ĠtuÃ´ng": 8780,
      "ĠHee": 8781,
      "ĠJob": 8782,
      "--------": 8783,
      "Ġ1962": 8784,
      "Ġcáº±m": 8785,
      "ĠLock": 8786,
      "Ġ175": 8787,
      "ĠcÃ²ng": 8788,
      "ĠlÃºt": 8789,
      "ĠÃ´i": 8790,
      "ĠTHÃĶNG": 8791,
      "Hoa": 8792,
      "Nguyá»ħn": 8793,
      "ĠLop": 8794,
      "ĠDer": 8795,
      "ĠLÆ°": 8796,
      "ĠAnt": 8797,
      "há»įc": 8798,
      "Ġcatwalk": 8799,
      "luck": 8800,
      "ĠCapital": 8801,
      "ĠcÃ¢m": 8802,
      "Ġphai": 8803,
      "ĠÄĳáº¥ng": 8804,
      "iago": 8805,
      "for": 8806,
      "ĠCook": 8807,
      "ĠJessica": 8808,
      "Ġ1966": 8809,
      "Ġom": 8810,
      "dragon": 8811,
      "ĠHK": 8812,
      "Ġradio": 8813,
      "esa": 8814,
      "orning": 8815,
      "ĠPPP": 8816,
      "ĠTRONG": 8817,
      "ĠCour": 8818,
      "ĠMá»¤C": 8819,
      "ĠKhÃ³a": 8820,
      "siÃªu": 8821,
      "Ġháº¯t": 8822,
      "bie": 8823,
      "Ġlogic": 8824,
      "ĠXperia": 8825,
      "Times": 8826,
      "ĠJane": 8827,
      "can": 8828,
      "ĠBáº¢O": 8829,
      "ĠSri": 8830,
      "Ġrá»ĳn": 8831,
      "fia": 8832,
      "ĠPL": 8833,
      "ĠBC": 8834,
      "ĠChen": 8835,
      "urnal": 8836,
      "Ġplay": 8837,
      "Ġmáº¥u": 8838,
      "ĠMoy": 8839,
      "ghini": 8840,
      "ĠlÃ¡n": 8841,
      "ĠVá»¤": 8842,
      "Ġchá»ĩch": 8843,
      "ĠrÆ°ng": 8844,
      "ĠDoug": 8845,
      "ĠLumia": 8846,
      "fer": 8847,
      "ĠhÃºc": 8848,
      "aster": 8849,
      "ĠLambor": 8850,
      "off": 8851,
      "Ġáº¨": 8852,
      "ĠBlues": 8853,
      "lat": 8854,
      "ĠBá»Ńu": 8855,
      "ĠchÃ³c": 8856,
      "ĠShang": 8857,
      "Ġsá»§a": 8858,
      "ven": 8859,
      "Ġ123": 8860,
      "oday": 8861,
      "Ġthá»ī": 8862,
      "ĠLive": 8863,
      "ĠNapoli": 8864,
      "Ġngáº¡o": 8865,
      "Ġthun": 8866,
      "Ġ1964": 8867,
      "ĠCÆ°á»Ľp": 8868,
      "ĠvÅ©ng": 8869,
      "Ġ114": 8870,
      "agan": 8871,
      "stem": 8872,
      "ĠPenn": 8873,
      "ures": 8874,
      "ĠKazakhstan": 8875,
      "ĠmÃ¡ch": 8876,
      "ĠLind": 8877,
      "ingham": 8878,
      "ĠLamborghini": 8879,
      "ĠTelegraph": 8880,
      "ĠWolf": 8881,
      "ĠMT": 8882,
      "XP": 8883,
      "LIVE": 8884,
      "ĠHollande": 8885,
      "Ġphot": 8886,
      "ĠVÃłnh": 8887,
      "ĠSnapdragon": 8888,
      "Ġsedan": 8889,
      "ĠNev": 8890,
      "ĠTTHC": 8891,
      "RA": 8892,
      "ĠkhÃ¹ng": 8893,
      "ĠxÃ¹": 8894,
      "ĠThÃ¡m": 8895,
      "ĠJournal": 8896,
      "OL": 8897,
      "rit": 8898,
      "...)": 8899,
      "ĠLump": 8900,
      "boy": 8901,
      "thá»±c": 8902,
      "ĠVá»ļI": 8903,
      "ĠSteven": 8904,
      "wang": 8905,
      "Ġ190": 8906,
      "ĠCastro": 8907,
      "ĠTHÃģNG": 8908,
      "viet": 8909,
      "ĠÄĲá»ĲI": 8910,
      "Ġlive": 8911,
      "ĠNag": 8912,
      "ations": 8913,
      "ĠNÃł": 8914,
      "ĠLA": 8915,
      "ĠÄĲáº¹p": 8916,
      "ĠAV": 8917,
      "ĠAnth": 8918,
      "ĠMS": 8919,
      "avi": 8920,
      "nÃ³ng": 8921,
      "ĠBiá»ĩt": 8922,
      "ĠBenzema": 8923,
      "ĠCit": 8924,
      "ĠCle": 8925,
      "ĠKhÃºc": 8926,
      "ĠCur": 8927,
      "ĠCÆł": 8928,
      "ĠBeau": 8929,
      "ĠxÃ³i": 8930,
      "ĠRol": 8931,
      "ĠCÄĲCS": 8932,
      "ĠISO": 8933,
      "KhÃ¡nh": 8934,
      "irl": 8935,
      "ĠChá»©": 8936,
      "ĠTem": 8937,
      "ĠTae": 8938,
      "ĠKHCN": 8939,
      "xcÆ¡va": 8940,
      "Ġláº»o": 8941,
      "Ġváº¡t": 8942,
      "ĠFul": 8943,
      "ĠLab": 8944,
      "ĠPri": 8945,
      "hip": 8946,
      "unt": 8947,
      "Ġ141": 8948,
      "usse": 8949,
      "Ġyen": 8950,
      "ĠNhiáº¿p": 8951,
      "ĠVinaPhone": 8952,
      "ĠDNA": 8953,
      "KCN": 8954,
      "á»ĭm": 8955,
      "ĠStam": 8956,
      "Ġtriá»ģn": 8957,
      "ĠrÃŃt": 8958,
      "ĠHá»£i": 8959,
      "regas": 8960,
      "ĠRodriguez": 8961,
      "HT": 8962,
      "amine": 8963,
      "Ġ121": 8964,
      "ĠâĻ«": 8965,
      "Ġ1954": 8966,
      "Ġdel": 8967,
      "ĠPra": 8968,
      "ĠJohnny": 8969,
      "ĠBizLIVE": 8970,
      "bit": 8971,
      "ĠNgáº¯m": 8972,
      "Ġvá»ın": 8973,
      "san": 8974,
      "Ġcáº¥n": 8975,
      "Ġsá»įc": 8976,
      "stal": 8977,
      "ĠSwan": 8978,
      "ĠEmirates": 8979,
      "ĠVnE": 8980,
      "ĠFil": 8981,
      "www": 8982,
      "pot": 8983,
      "ĠBÃ©o": 8984,
      "ĠÄĲKVÄĲ": 8985,
      "ĠcÃ¹": 8986,
      "ĠJar": 8987,
      "cent": 8988,
      "TVQH": 8989,
      "ĠIsland": 8990,
      "ĠSab": 8991,
      "ĠPors": 8992,
      "TPHCM": 8993,
      "ĠFranco": 8994,
      "ĠÆł": 8995,
      "ĠKas": 8996,
      "Ġhuyá»ĩt": 8997,
      "Ġgiá»Ĺ": 8998,
      "ĠCá»«": 8999,
      "ĠThÃ´n": 9000,
      "ĠAB": 9001,
      "ĠSat": 9002,
      "thur": 9003,
      "atus": 9004,
      "ĠOt": 9005,
      "box": 9006,
      "pson": 9007,
      "ĠQueen": 9008,
      "Ġmo": 9009,
      "ute": 9010,
      "idi": 9011,
      "ĠRaj": 9012,
      "Ġphiá»ĩn": 9013,
      "ĠMosul": 9014,
      "ĠYingluck": 9015,
      "ĠthÃ¡n": 9016,
      "ool": 9017,
      "ÃĤY": 9018,
      "ĠSSI": 9019,
      "ĠDeb": 9020,
      "Ġmet": 9021,
      "OA": 9022,
      "cept": 9023,
      "ĠCV": 9024,
      "ĠPhÃ¡i": 9025,
      "ahu": 9026,
      "Benz": 9027,
      "ĠKey": 9028,
      "ĠKuala": 9029,
      "ĠdÃŃ": 9030,
      "ĠCI": 9031,
      "ĠÄĥ": 9032,
      "ĠIX": 9033,
      "ĠkÃ¨o": 9034,
      "Ġmá»ĵng": 9035,
      "ĠCBCS": 9036,
      "ĠvÆ¡i": 9037,
      "ĠFTA": 9038,
      "ology": 9039,
      "ĠoÃ¡n": 9040,
      "ĠnÆ¡": 9041,
      "ĠSenkaku": 9042,
      "ĠnÃ¡u": 9043,
      "Ġháº±n": 9044,
      "ĠphÆ°á»Ľc": 9045,
      "Äĳá»ĵng": 9046,
      "Ġngá»ķn": 9047,
      "ĠTÃĢI": 9048,
      "ĠLáº¯c": 9049,
      "ĠPed": 9050,
      "ĠKÃŃch": 9051,
      "ĠdÃ£i": 9052,
      "ras": 9053,
      "ĠGun": 9054,
      "ĠLÄĲLÄĲVN": 9055,
      "har": 9056,
      "ĠkÃ¬nh": 9057,
      "ĠbÃ´": 9058,
      "ĠMiá»ħn": 9059,
      "ĠTrav": 9060,
      "ĠPorsche": 9061,
      "ĠLumpur": 9062,
      "ij": 9063,
      "uat": 9064,
      "ĠFire": 9065,
      "tainment": 9066,
      "Ġcháº¯t": 9067,
      "anon": 9068,
      "Ġ127": 9069,
      "ĠSáº¢N": 9070,
      "ador": 9071,
      "ĠFabregas": 9072,
      "gá»įi": 9073,
      "ĠTáºŃn": 9074,
      "ĠgiÄĥng": 9075,
      "ffe": 9076,
      "ĠKhe": 9077,
      "tim": 9078,
      "ĠCá»ı": 9079,
      "ĠTHá»¦": 9080,
      "bar": 9081,
      "Ġ1060": 9082,
      "etta": 9083,
      "ĠVietlott": 9084,
      "ĠSap": 9085,
      "ĠSá»Ńu": 9086,
      "ĠÄĳá»Ŀn": 9087,
      "alty": 9088,
      "ifi": 9089,
      "Ġbáº£": 9090,
      "ĠBrook": 9091,
      "ĠTHI": 9092,
      "ĠVIP": 9093,
      "ĠThÃ©p": 9094,
      "mun": 9095,
      "ĠNáº¯m": 9096,
      "ĠTrip": 9097,
      "ĠMÃ¢u": 9098,
      "ĠChiÃªm": 9099,
      "ĠGáº¡o": 9100,
      "ĠCHI": 9101,
      "ĠSeung": 9102,
      "rie": 9103,
      "Ġmiáº¿u": 9104,
      "Ġvá»¥ng": 9105,
      "ĠWHO": 9106,
      "Ġsum": 9107,
      "king": 9108,
      "ĠDáº¡y": 9109,
      "ĠLÃ£": 9110,
      "ĠVAMC": 9111,
      "khu": 9112,
      "giáº£i": 9113,
      "ĠMacron": 9114,
      "oe": 9115,
      "ĠNhá»ĭ": 9116,
      "ĠHarris": 9117,
      "ĠRÄĥng": 9118,
      "AV": 9119,
      "ĠChiÃªu": 9120,
      "cl": 9121,
      "ĠHold": 9122,
      "Ġtá»§y": 9123,
      "Ġsáº£ng": 9124,
      "ĠStore": 9125,
      "xÃŃt": 9126,
      "2001": 9127,
      "ĠVNA": 9128,
      "ĠphÃ¡ch": 9129,
      "ĠBent": 9130,
      "TVS": 9131,
      "nie": 9132,
      "ĠWeek": 9133,
      "ĠTÃło": 9134,
      "Ġnga": 9135,
      "ĠÄĳÃ£ng": 9136,
      "ĠKam": 9137,
      "Ġkhoáº¯n": 9138,
      "Ġnháº¹n": 9139,
      "ĠRain": 9140,
      "Ġ<": 9141,
      "ĠLÃłnh": 9142,
      "emy": 9143,
      "ĠDá»ĩt": 9144,
      "TTT": 9145,
      "SE": 9146,
      "ĠQual": 9147,
      "ĠRuss": 9148,
      "Ġgiun": 9149,
      "Ġhá»ħ": 9150,
      "ĠWan": 9151,
      "light": 9152,
      "du": 9153,
      "ĠTKV": 9154,
      "quy": 9155,
      "ĠPN": 9156,
      "ĠJes": 9157,
      "ĠRoger": 9158,
      "ĠngÃ³i": 9159,
      "ĠDor": 9160,
      "ĠEntertainment": 9161,
      "Ġgram": 9162,
      "Ġdáº«m": 9163,
      "ĠVinalines": 9164,
      "ĠsÃł": 9165,
      "PhÃ³": 9166,
      "2003": 9167,
      "mand": 9168,
      "Ġváº§n": 9169,
      "Ġtá»£n": 9170,
      "ĠBÆ°á»Łi": 9171,
      "ĠJul": 9172,
      "ĠColum": 9173,
      "ĠTÃ²ng": 9174,
      "ĠIdlib": 9175,
      "Ġ118": 9176,
      "ĠKhan": 9177,
      "Sau": 9178,
      "ball": 9179,
      "Äĳa": 9180,
      "Ġdong": 9181,
      "DP": 9182,
      "ĠRomania": 9183,
      "Ġ117": 9184,
      "pol": 9185,
      "ĠDS": 9186,
      "Ġmar": 9187,
      "aine": 9188,
      "ĠPCT": 9189,
      "chia": 9190,
      "Ã³e": 9191,
      "ĠMol": 9192,
      "aus": 9193,
      "Ġ270": 9194,
      "view": 9195,
      "ĠManh": 9196,
      "ĠSmart": 9197,
      "oman": 9198,
      "120": 9199,
      "ĠOK": 9200,
      "opy": 9201,
      "ĠKhoáº£nh": 9202,
      "ubishi": 9203,
      "ĠChá»ĭu": 9204,
      "ĠÄĲá»Ļt": 9205,
      "ĠPy": 9206,
      "Ġgá»įt": 9207,
      "ĠCÄĥng": 9208,
      "ĠÐ": 9209,
      "%-": 9210,
      "ĠABC": 9211,
      "ĠNhiÃªn": 9212,
      "hot": 9213,
      "ĠrÃłnh": 9214,
      "ii": 9215,
      "ĠtuÃ½p": 9216,
      "uador": 9217,
      "Ġ122": 9218,
      "ĠÄĲÃ³n": 9219,
      "ĠDun": 9220,
      "ĠXáº¿p": 9221,
      "ĠMá»ĺ": 9222,
      "Ġ126": 9223,
      "Ġbai": 9224,
      "ĠBad": 9225,
      "ĠRáº±ng": 9226,
      "á»ģu": 9227,
      "ĠAlexand": 9228,
      "Ġxui": 9229,
      "Ġsá»¯ng": 9230,
      "BÃ¡o": 9231,
      "duc": 9232,
      "ĠLáº¡nh": 9233,
      "Ġvá»¥t": 9234,
      "ĠUAV": 9235,
      "ĠbáºŃy": 9236,
      "ĠTown": 9237,
      "?).": 9238,
      "Ġnom": 9239,
      "board": 9240,
      "Ġtab": 9241,
      "Ġcent": 9242,
      "Ġmix": 9243,
      "iá»ĥng": 9244,
      "225": 9245,
      "ĠKhÃ¡ng": 9246,
      "ĠDeir": 9247,
      "ĠAlf": 9248,
      "ĠInn": 9249,
      "Ġtá»Ł": 9250,
      "ĠSecret": 9251,
      "Ġcáº±n": 9252,
      "ĠGÃ³p": 9253,
      "ĠStamford": 9254,
      "ĠNhÃ¢m": 9255,
      "Ġcasino": 9256,
      "ĠTunis": 9257,
      "mone": 9258,
      "dr": 9259,
      "ĠRafael": 9260,
      "RI": 9261,
      "ĠGon": 9262,
      "ráºŃp": 9263,
      "ĠmÆ°á»Ľn": 9264,
      "had": 9265,
      "ĠBiá»ĩn": 9266,
      "ĠDanny": 9267,
      "ĠMoyes": 9268,
      "ĠFED": 9269,
      "ĠRap": 9270,
      "ĠPalace": 9271,
      "book": 9272,
      "RE": 9273,
      "cia": 9274,
      "ĠThoáº¡i": 9275,
      "ĠAj": 9276,
      "obe": 9277,
      "rich": 9278,
      "HA": 9279,
      "lÆ°á»£t": 9280,
      "ĠCáº¯t": 9281,
      "FTA": 9282,
      "ĠCab": 9283,
      "ĠTrÃ¹ng": 9284,
      "sterdam": 9285,
      "idel": 9286,
      "orth": 9287,
      "ĠMach": 9288,
      "ĠNGHIá»ĨP": 9289,
      "Ġtest": 9290,
      "Ġráº§u": 9291,
      "ĠCanon": 9292,
      "ĠbÃ³i": 9293,
      "ĠÄĳá»Ĺi": 9294,
      "chiáº¿c": 9295,
      "ĠSVÄĲ": 9296,
      "ĠEcuador": 9297,
      "Ġbá»£": 9298,
      "ĠHinh": 9299,
      "áºłN": 9300,
      "ĠtÃ²i": 9301,
      "Ġcáº·n": 9302,
      "ĠrÃ¬": 9303,
      "ÃĢN": 9304,
      "ĠHat": 9305,
      "bridge": 9306,
      "ĠGIÃģ": 9307,
      "lav": 9308,
      "trÆ°á»Ľc": 9309,
      "CG": 9310,
      "ĠrÃ¡t": 9311,
      "ĠSabeco": 9312,
      "ĠWoo": 9313,
      "Ġváº¿": 9314,
      "otelli": 9315,
      "ĠGam": 9316,
      "ÄĤN": 9317,
      "ĠLenovo": 9318,
      "ĠCAH": 9319,
      "underland": 9320,
      "kV": 9321,
      "ĠNan": 9322,
      "inger": 9323,
      "comm": 9324,
      "ĠkhÃ¢m": 9325,
      "Ġbuá»ĵm": 9326,
      "apan": 9327,
      "cal": 9328,
      "Ġhormone": 9329,
      "1945": 9330,
      "Ġvest": 9331,
      "ault": 9332,
      "ĠHTV": 9333,
      "ĠMÃ¨o": 9334,
      "ĠMá»ĺT": 9335,
      "Ġtá»Ļt": 9336,
      "Ġthá»ĩ": 9337,
      "ĠCole": 9338,
      "ĠKhoan": 9339,
      "Ġ981": 9340,
      "Ġdáº¥n": 9341,
      "ĠKor": 9342,
      "ĠStand": 9343,
      "ĠCAP": 9344,
      "rolet": 9345,
      "HoÃłng": 9346,
      "ĠDef": 9347,
      "giÃ¡": 9348,
      "á»ĢN": 9349,
      "táº¡i": 9350,
      "Ġcháº¯p": 9351,
      "ĠCháº£": 9352,
      "ĠGAS": 9353,
      "FO": 9354,
      "iva": 9355,
      "ĠPart": 9356,
      "cord": 9357,
      "ĠBVTV": 9358,
      "ĠNá»Ńa": 9359,
      "Ġláº¡y": 9360,
      "ucker": 9361,
      "ĠCoun": 9362,
      "ĠHir": 9363,
      "ĠOm": 9364,
      "CX": 9365,
      "rent": 9366,
      "ĠMata": 9367,
      "ĠCenter": 9368,
      "Ġad": 9369,
      "ĠCz": 9370,
      "ĠOliver": 9371,
      "ĠKhuÃ´n": 9372,
      "VP": 9373,
      "ĠbÃłnh": 9374,
      "ĠBaghd": 9375,
      "ior": 9376,
      "ĠmÃ¨": 9377,
      "ĠGabri": 9378,
      "iel": 9379,
      "ken": 9380,
      "ĠkhoÃ©t": 9381,
      "ĠGeun": 9382,
      "mg": 9383,
      "ĠVa": 9384,
      "ĠSouthampton": 9385,
      "Ġ365": 9386,
      "Ġbá»Ŀi": 9387,
      "Ġmáº§u": 9388,
      "ĠNhan": 9389,
      "oda": 9390,
      "ĠsÃª": 9391,
      "ĠSS": 9392,
      "ĠChevrolet": 9393,
      "bÃªn": 9394,
      "ĠDOANH": 9395,
      "rique": 9396,
      "ĠGareth": 9397,
      "ATGT": 9398,
      "ĠBalotelli": 9399,
      "ĠAlexis": 9400,
      "zh": 9401,
      "Ġ@": 9402,
      "Ġgiáº§y": 9403,
      "ĠGPS": 9404,
      "Ġ155": 9405,
      "Ġtrá»£n": 9406,
      "ĠBella": 9407,
      "Ġstart": 9408,
      "ĠBLHS": 9409,
      "ĠSusan": 9410,
      "HD": 9411,
      "Ġchao": 9412,
      "ĠHOáºłT": 9413,
      "ĠTower": 9414,
      "VÃ¬": 9415,
      "ĠÄĳiáº¿m": 9416,
      "ĠBáº¥y": 9417,
      "ĠAug": 9418,
      "ĠMatth": 9419,
      "BT": 9420,
      "osti": 9421,
      "Ġjeans": 9422,
      "ãĤ": 9423,
      "ĠÃģng": 9424,
      "Ġ280": 9425,
      "ĠtÃºm": 9426,
      "Ġ1963": 9427,
      "ĠTRÃĮNH": 9428,
      "Ġ1930": 9429,
      "ĠCarib": 9430,
      "ĠAshley": 9431,
      "ĠBÃ²": 9432,
      "thá»©": 9433,
      "ĠVietnamnet": 9434,
      "ĠBundes": 9435,
      "ĠAnthony": 9436,
      "Ġgá»Ŀ": 9437,
      "ĠHoáº±ng": 9438,
      "ĠNicolas": 9439,
      "ĠOd": 9440,
      "ĠSter": 9441,
      "ĠDá»«ng": 9442,
      "ĠGod": 9443,
      "ious": 9444,
      "''": 9445,
      "Ġnháº½": 9446,
      "Ġnháº£m": 9447,
      "ĠLil": 9448,
      "ĠnhÃºn": 9449,
      "ĠMitsubishi": 9450,
      "ĠRIA": 9451,
      "ĠTher": 9452,
      "ĠVIC": 9453,
      "bul": 9454,
      "ĠKháº©u": 9455,
      "ĠHig": 9456,
      "vá»£": 9457,
      "Ġ132": 9458,
      "Ġláº©u": 9459,
      "ĠhÄĥm": 9460,
      "owski": 9461,
      "ĠthuyÃªn": 9462,
      "Ġsho": 9463,
      "ICA": 9464,
      "atherine": 9465,
      "ĠBall": 9466,
      "ĠIv": 9467,
      "1975": 9468,
      "ĠTL": 9469,
      "ĠCairo": 9470,
      "ĠGiÃ¢y": 9471,
      "ĠLyn": 9472,
      "appy": 9473,
      "ĠSunderland": 9474,
      "org": 9475,
      "liga": 9476,
      "Ġpl": 9477,
      "ĠBenj": 9478,
      "ĠRON": 9479,
      "ĠLá»«a": 9480,
      "ĠCháºŃm": 9481,
      "ĠDá»ħ": 9482,
      "Ġlogistics": 9483,
      "Ġtá»Łm": 9484,
      "Ġnáº¥c": 9485,
      "Ġex": 9486,
      "ĠgÆ°á»£ng": 9487,
      "ĠThuáº§n": 9488,
      "Ġ260": 9489,
      "ĠGas": 9490,
      "ĠTechcombank": 9491,
      "bu": 9492,
      "Ġtrá»įc": 9493,
      "asil": 9494,
      "ĠGiáº¥c": 9495,
      "ĠAmsterdam": 9496,
      "Ġbanh": 9497,
      "ĠMorning": 9498,
      "ĠLIÃĬN": 9499,
      "ĠPay": 9500,
      "ĠGary": 9501,
      "vest": 9502,
      "Ġsáº§m": 9503,
      "Ġvá»ĩt": 9504,
      "Há»Ļi": 9505,
      "Ġbá»Ļn": 9506,
      "TrÆ°á»Ŀng": 9507,
      "Ġsá»Ļ": 9508,
      "ĠSÃ¡t": 9509,
      "ĠCes": 9510,
      "ĠSara": 9511,
      "ĠColor": 9512,
      "Ġláº¡ng": 9513,
      "ĠGall": 9514,
      "Ġtáº¯n": 9515,
      "asa": 9516,
      "Ġduá»ĩ": 9517,
      "Ġnu": 9518,
      "ĠnÃ¡ch": 9519,
      "ĠDra": 9520,
      "rog": 9521,
      "Ġhen": 9522,
      "ĠVAT": 9523,
      "á»ĬCH": 9524,
      "ĠJimmy": 9525,
      "Ġtáº¥c": 9526,
      "Ġquáº·c": 9527,
      "ĠTruyá»ĩn": 9528,
      "Ġcá»Ńu": 9529,
      "ĠBrian": 9530,
      "ĠLotte": 9531,
      "kins": 9532,
      "Ġráº§y": 9533,
      "ĠGala": 9534,
      "ĠLáºŃy": 9535,
      "ĠlÃ©p": 9536,
      "ĠHáº³n": 9537,
      "CÃ´": 9538,
      "str": 9539,
      "Ġboy": 9540,
      "phia": 9541,
      "Ġquai": 9542,
      "ĠMA": 9543,
      "ĠKane": 9544,
      "work": 9545,
      "Ġháº¥n": 9546,
      "ĠKyo": 9547,
      "umi": 9548,
      "ĠSCIC": 9549,
      "izza": 9550,
      "Ġtruáº¥t": 9551,
      "ĠRoberto": 9552,
      "?.": 9553,
      "ĠLux": 9554,
      "inea": 9555,
      "qa": 9556,
      "sson": 9557,
      "ĠBour": 9558,
      "ĠShaw": 9559,
      "Ġnhá»ĳi": 9560,
      "lic": 9561,
      "oon": 9562,
      "ĠliÃªu": 9563,
      "Ġ124": 9564,
      "ĠRolls": 9565,
      "Ġhan": 9566,
      "ĠNá»Ĺ": 9567,
      "get": 9568,
      "ullah": 9569,
      "aux": 9570,
      "Pet": 9571,
      "ĠÄĳÃ¹ng": 9572,
      "Ġlim": 9573,
      "ĠchÃły": 9574,
      "ĠQuÃª": 9575,
      "ĠCoca": 9576,
      "á»±t": 9577,
      "Man": 9578,
      "Ġláº«m": 9579,
      "ĠHugh": 9580,
      "cert": 9581,
      "yle": 9582,
      "ĠKab": 9583,
      "dau": 9584,
[...]
